{
  "version": "1.0",
  "truncation": null,
  "padding": null,
  "added_tokens": [
    {
      "id": 0,
      "content": "<unk>",
      "single_word": false,
      "lstrip": false,
      "rstrip": false,
      "normalized": false,
      "special": true
    }
  ],
  "normalizer": null,
  "pre_tokenizer": {
    "type": "ByteLevel",
    "add_prefix_space": false,
    "trim_offsets": true,
    "use_regex": true
  },
  "post_processor": null,
  "decoder": {
    "type": "ByteLevel",
    "add_prefix_space": true,
    "trim_offsets": true,
    "use_regex": true
  },
  "model": {
    "type": "BPE",
    "dropout": null,
    "unk_token": "<unk>",
    "continuing_subword_prefix": null,
    "end_of_word_suffix": null,
    "fuse_unk": false,
    "byte_fallback": false,
    "ignore_merges": false,
    "vocab": {
      "<unk>": 0,
      "!": 1,
      "\"": 2,
      "#": 3,
      "$": 4,
      "%": 5,
      "&": 6,
      "'": 7,
      "(": 8,
      ")": 9,
      "*": 10,
      "+": 11,
      ",": 12,
      "-": 13,
      ".": 14,
      "/": 15,
      "0": 16,
      "1": 17,
      "2": 18,
      "3": 19,
      "4": 20,
      "5": 21,
      "6": 22,
      "7": 23,
      "8": 24,
      "9": 25,
      ":": 26,
      ";": 27,
      "<": 28,
      "=": 29,
      ">": 30,
      "?": 31,
      "@": 32,
      "A": 33,
      "B": 34,
      "C": 35,
      "D": 36,
      "E": 37,
      "F": 38,
      "G": 39,
      "H": 40,
      "I": 41,
      "J": 42,
      "K": 43,
      "L": 44,
      "M": 45,
      "N": 46,
      "O": 47,
      "P": 48,
      "Q": 49,
      "R": 50,
      "S": 51,
      "T": 52,
      "U": 53,
      "V": 54,
      "W": 55,
      "X": 56,
      "Y": 57,
      "Z": 58,
      "[": 59,
      "\\": 60,
      "]": 61,
      "^": 62,
      "_": 63,
      "`": 64,
      "a": 65,
      "b": 66,
      "c": 67,
      "d": 68,
      "e": 69,
      "f": 70,
      "g": 71,
      "h": 72,
      "i": 73,
      "j": 74,
      "k": 75,
      "l": 76,
      "m": 77,
      "n": 78,
      "o": 79,
      "p": 80,
      "q": 81,
      "r": 82,
      "s": 83,
      "t": 84,
      "u": 85,
      "v": 86,
      "w": 87,
      "x": 88,
      "y": 89,
      "z": 90,
      "|": 91,
      "}": 92,
      "~": 93,
      "¡": 94,
      "¢": 95,
      "£": 96,
      "¤": 97,
      "¥": 98,
      "¦": 99,
      "§": 100,
      "¨": 101,
      "©": 102,
      "ª": 103,
      "«": 104,
      "¬": 105,
      "®": 106,
      "¯": 107,
      "°": 108,
      "±": 109,
      "²": 110,
      "³": 111,
      "´": 112,
      "µ": 113,
      "¶": 114,
      "·": 115,
      "¸": 116,
      "¹": 117,
      "º": 118,
      "»": 119,
      "¼": 120,
      "½": 121,
      "¾": 122,
      "¿": 123,
      "Â": 124,
      "Ã": 125,
      "Ä": 126,
      "Å": 127,
      "Æ": 128,
      "Ç": 129,
      "È": 130,
      "É": 131,
      "Ê": 132,
      "Ë": 133,
      "Ì": 134,
      "Í": 135,
      "Î": 136,
      "Ï": 137,
      "Ð": 138,
      "Ñ": 139,
      "Ò": 140,
      "Ó": 141,
      "Õ": 142,
      "Ö": 143,
      "×": 144,
      "Ø": 145,
      "Ù": 146,
      "Ú": 147,
      "Û": 148,
      "Ü": 149,
      "ß": 150,
      "à": 151,
      "á": 152,
      "â": 153,
      "ã": 154,
      "ä": 155,
      "å": 156,
      "æ": 157,
      "ç": 158,
      "è": 159,
      "é": 160,
      "ê": 161,
      "ë": 162,
      "ì": 163,
      "í": 164,
      "ï": 165,
      "ð": 166,
      "ă": 167,
      "Ĉ": 168,
      "ĉ": 169,
      "Ċ": 170,
      "Ē": 171,
      "ě": 172,
      "Ġ": 173,
      "Ģ": 174,
      "ģ": 175,
      "Ĥ": 176,
      "ĥ": 177,
      "Ħ": 178,
      "ħ": 179,
      "Ĩ": 180,
      "ĩ": 181,
      "Ī": 182,
      "ī": 183,
      "Ĭ": 184,
      "ĭ": 185,
      "Į": 186,
      "į": 187,
      "İ": 188,
      "ı": 189,
      "Ĳ": 190,
      "ĳ": 191,
      "Ĵ": 192,
      "ĵ": 193,
      "Ķ": 194,
      "ķ": 195,
      "ĸ": 196,
      "Ĺ": 197,
      "ĺ": 198,
      "Ļ": 199,
      "ļ": 200,
      "Ľ": 201,
      "ľ": 202,
      "Ŀ": 203,
      "ŀ": 204,
      "Ł": 205,
      "ł": 206,
      "Ń": 207,
      "Ġt": 208,
      "Ġa": 209,
      "in": 210,
      "he": 211,
      "re": 212,
      "on": 213,
      "Ġthe": 214,
      "er": 215,
      "Ġs": 216,
      "Ġw": 217,
      "Ġo": 218,
      "at": 219,
      "nd": 220,
      "Ġc": 221,
      "it": 222,
      "ou": 223,
      "or": 224,
      "es": 225,
      "Ġf": 226,
      "is": 227,
      "en": 228,
      "Ġb": 229,
      "ing": 230,
      "Ġp": 231,
      "an": 232,
      "ed": 233,
      "Ġto": 234,
      "al": 235,
      "Ġm": 236,
      "Ġand": 237,
      "ar": 238,
      "Ġin": 239,
      "Ġof": 240,
      "Ġd": 241,
      "ic": 242,
      "le": 243,
      "om": 244,
      "Ġh": 245,
      "ion": 246,
      "as": 247,
      "Ġth": 248,
      "il": 249,
      "Ġy": 250,
      "ent": 251,
      "Ġl": 252,
      "ve": 253,
      "Ġe": 254,
      "ro": 255,
      "Ġre": 256,
      "st": 257,
      "Ġn": 258,
      "Ġyou": 259,
      "ct": 260,
      "Ġg": 261,
      "âĢ": 262,
      "et": 263,
      "ĠI": 264,
      "ly": 265,
      "Ġis": 266,
      "Ġbe": 267,
      "Ġfor": 268,
      "ĠT": 269,
      "ut": 270,
      "ot": 271,
      "Ġon": 272,
      "id": 273,
      "ur": 274,
      "ĠS": 275,
      "ow": 276,
      "ay": 277,
      "ce": 278,
      "us": 279,
      "ol": 280,
      "ra": 281,
      "ig": 282,
      "im": 283,
      "ith": 284,
      "ver": 285,
      "ch": 286,
      "ĠC": 287,
      "ĠA": 288,
      "el": 289,
      "ation": 290,
      "Ġthat": 291,
      "Ġst": 292,
      "Ġwith": 293,
      "ad": 294,
      "Ġit": 295,
      "am": 296,
      "ir": 297,
      "âĢĻ": 298,
      "Ġal": 299,
      "Ġpro": 300,
      "Ġan": 301,
      "ill": 302,
      "ĠM": 303,
      "Ġas": 304,
      "ers": 305,
      "ul": 306,
      "Ġare": 307,
      "her": 308,
      "Ġwh": 309,
      "se": 310,
      "if": 311,
      "un": 312,
      "Ġha": 313,
      "Ġwe": 314,
      "ĠP": 315,
      "ge": 316,
      "ĠB": 317,
      "ke": 318,
      "Ġcon": 319,
      "Ġor": 320,
      "oo": 321,
      "ter": 322,
      "ess": 323,
      "Ġcom": 324,
      "pp": 325,
      "ĠW": 326,
      "ate": 327,
      "ment": 328,
      "Ġhe": 329,
      "est": 330,
      "Ġyour": 331,
      "Ġat": 332,
      "ab": 333,
      "ĠThe": 334,
      "ck": 335,
      "ore": 336,
      "Ġex": 337,
      "Ġfr": 338,
      "Ġne": 339,
      "ĠH": 340,
      "igh": 341,
      "ld": 342,
      "ĠD": 343,
      "qu": 344,
      "Ġse": 345,
      "ive": 346,
      "pe": 347,
      "ĠF": 348,
      "ist": 349,
      "Ġsu": 350,
      "Ġde": 351,
      "th": 352,
      "ant": 353,
      "Ġv": 354,
      "ity": 355,
      "Ġhave": 356,
      "Ġcan": 357,
      "Ġ1": 358,
      "res": 359,
      "ust": 360,
      "Ġwas": 361,
      "Ġr": 362,
      "ies": 363,
      "op": 364,
      "ĠR": 365,
      "ort": 366,
      "Ġus": 367,
      "art": 368,
      "Ġsh": 369,
      "Ġ2": 370,
      "Ġfrom": 371,
      "ain": 372,
      "em": 373,
      "Ġthis": 374,
      "ĠL": 375,
      "um": 376,
      "Ġch": 377,
      "Ġwill": 378,
      "Ġ(": 379,
      "ĠG": 380,
      "iv": 381,
      "Ġnot": 382,
      "os": 383,
      "Ġby": 384,
      "and": 385,
      "Ġu": 386,
      "ĠE": 387,
      "nt": 388,
      "ĠN": 389,
      "ight": 390,
      "ome": 391,
      "Ġle": 392,
      "all": 393,
      "Ġwor": 394,
      "ard": 395,
      "ie": 396,
      "out": 397,
      "our": 398,
      "ost": 399,
      "red": 400,
      "ial": 401,
      "per": 402,
      "Ġall": 403,
      "Ġab": 404,
      "ide": 405,
      "ould": 406,
      "Ġdo": 407,
      "Ġpl": 408,
      "ud": 409,
      "ĠO": 410,
      "gh": 411,
      "ĠâĢ": 412,
      "te": 413,
      "rou": 414,
      "od": 415,
      "ip": 416,
      "ine": 417,
      "ure": 418,
      "Ġso": 419,
      "Ġcomp": 420,
      "Ġma": 421,
      "fe": 422,
      "Ġj": 423,
      "ell": 424,
      "age": 425,
      "ice": 426,
      "ast": 427,
      "Ġhas": 428,
      "Ġad": 429,
      "Ġk": 430,
      "ally": 431,
      "king": 432,
      "ear": 433,
      "ib": 434,
      "ions": 435,
      "The": 436,
      "Ġwhe": 437,
      "able": 438,
      "ther": 439,
      "ag": 440,
      "Ġout": 441,
      "Ġen": 442,
      "are": 443,
      "ich": 444,
      "ac": 445,
      "Ġbut": 446,
      "Ġup": 447,
      "so": 448,
      "Ġme": 449,
      "ite": 450,
      "00": 451,
      "very": 452,
      "ated": 453,
      "Ġour": 454,
      "ack": 455,
      "ind": 456,
      "pt": 457,
      "lo": 458,
      "ĠJ": 459,
      "Ġtheir": 460,
      "ood": 461,
      "Ġmore": 462,
      "cc": 463,
      "ry": 464,
      "Ġmy": 465,
      "iz": 466,
      "du": 467,
      "Ġthey": 468,
      "one": 469,
      "ime": 470,
      "ĠU": 471,
      "ous": 472,
      "Ġlo": 473,
      "for": 474,
      "ĠTh": 475,
      "Ġim": 476,
      "ail": 477,
      "ong": 478,
      "Ġcont": 479,
      "Ġone": 480,
      "ks": 481,
      "act": 482,
      "ance": 483,
      "Ġcl": 484,
      "'s": 485,
      "ign": 486,
      "ike": 487,
      "Ġman": 488,
      "Ġte": 489,
      "ĠIn": 490,
      "Ġinc": 491,
      "Ġabout": 492,
      "Ġapp": 493,
      "Ġwhich": 494,
      "Ġres": 495,
      "ans": 496,
      "reat": 497,
      "Ġun": 498,
      "ire": 499,
      "Ġfe": 500,
      "ase": 501,
      "ll": 502,
      "ult": 503,
      "Ġqu": 504,
      "ace": 505,
      "Ġpr": 506,
      "ction": 507,
      "ia": 508,
      "ations": 509,
      "ru": 510,
      "Ġper": 511,
      "to": 512,
      "ĠY": 513,
      "Ġany": 514,
      "ree": 515,
      "Ġalso": 516,
      "Ġgo": 517,
      "ber": 518,
      "Ġoff": 519,
      "Ġother": 520,
      "erv": 521,
      "Ġsp": 522,
      "Ġtime": 523,
      "ass": 524,
      "Ġwho": 525,
      "og": 526,
      "ach": 527,
      "ap": 528,
      "Ġ20": 529,
      "ame": 530,
      "ical": 531,
      "form": 532,
      "ne": 533,
      "vel": 534,
      "Ġtra": 535,
      "Ġev": 536,
      "Ġget": 537,
      "pl": 538,
      "av": 539,
      "ary": 540,
      "Ġpart": 541,
      "ile": 542,
      "ays": 543,
      "ĠIt": 544,
      "Ġsome": 545,
      "ff": 546,
      "Ġdis": 547,
      "Ġthem": 548,
      "Ġyear": 549,
      "ep": 550,
      "Ġlike": 551,
      "ook": 552,
      "ount": 553,
      "Ġnew": 554,
      "ak": 555,
      "ĠK": 556,
      "ence": 557,
      "ents": 558,
      "ue": 559,
      "now": 560,
      "ition": 561,
      "ings": 562,
      "Ġneed": 563,
      "âĢĿ": 564,
      "ress": 565,
      "ors": 566,
      "Ġar": 567,
      "ick": 568,
      "Ġover": 569,
      "Ġspe": 570,
      "Ġbeen": 571,
      "Ġrec": 572,
      "ub": 573,
      "Ġif": 574,
      "ark": 575,
      "Ġthere": 576,
      "Ġro": 577,
      "ond": 578,
      "Ġag": 579,
      "Ġ3": 580,
      "Ġpe": 581,
      "Ġwhen": 582,
      "ild": 583,
      "Ġimp": 584,
      "ĠV": 585,
      "cial": 586,
      "Ġsa": 587,
      "Ġwork": 588,
      "Ġhis": 589,
      "Ġwhat": 590,
      "wn": 591,
      "ĠCh": 592,
      "ough": 593,
      "ĠSt": 594,
      "Ġtr": 595,
      "Ġ201": 596,
      "Ġpre": 597,
      "ake": 598,
      "ens": 599,
      "Ġdes": 600,
      "ren": 601,
      "Ġits": 602,
      "Ġthan": 603,
      "ĠWe": 604,
      "Ġacc": 605,
      "nder": 606,
      "Ġam": 607,
      "low": 608,
      "ater": 609,
      "Ġwould": 610,
      "ĠâĢľ": 611,
      "Ġsc": 612,
      "Ġprov": 613,
      "ish": 614,
      "Ġhad": 615,
      "Ġjust": 616,
      "Ġhow": 617,
      "Ġknow": 618,
      "ound": 619,
      "rough": 620,
      "lp": 621,
      "int": 622,
      "ord": 623,
      "Ġwere": 624,
      "Ġinto": 625,
      "Ġcomm": 626,
      "Ġcol": 627,
      "ople": 628,
      "ĠThis": 629,
      "vers": 630,
      "Ġco": 631,
      "lud": 632,
      "tern": 633,
      "Ġher": 634,
      "Ġmake": 635,
      "Ġhelp": 636,
      "Ġuse": 637,
      "own": 638,
      "ning": 639,
      "Ġbu": 640,
      "use": 641,
      "ram": 642,
      "Ġbec": 643,
      "Ġserv": 644,
      "ful": 645,
      "ang": 646,
      "Ġno": 647,
      "Ġprodu": 648,
      "irst": 649,
      "Ġmay": 650,
      "Ġadd": 651,
      "ces": 652,
      "rent": 653,
      "Ġaf": 654,
      "ual": 655,
      "Ġpeople": 656,
      "Ġind": 657,
      "ory": 658,
      "Ġ\"": 659,
      "ments": 660,
      "Ġmost": 661,
      "ft": 662,
      "ious": 663,
      "Ġonly": 664,
      "itt": 665,
      "cts": 666,
      "mer": 667,
      "ons": 668,
      "Ġwell": 669,
      "ose": 670,
      "Ġtw": 671,
      "lic": 672,
      "Ġevery": 673,
      "Ġthrough": 674,
      "oc": 675,
      ").": 676,
      "ices": 677,
      "old": 678,
      "Ġinclud": 679,
      "ates": 680,
      "Ġcons": 681,
      "les": 682,
      "ian": 683,
      "Ġ-": 684,
      "hed": 685,
      "ink": 686,
      "bs": 687,
      "Ġexper": 688,
      "round": 689,
      "ĠâĢĵ": 690,
      "ied": 691,
      "je": 692,
      "any": 693,
      "Ġwant": 694,
      "ating": 695,
      "Ġph": 696,
      "ov": 697,
      "Ġbet": 698,
      "Ġsupp": 699,
      "ise": 700,
      "Ġfirst": 701,
      "Ġvery": 702,
      "Ġthese": 703,
      "ĠHe": 704,
      "Ġunder": 705,
      "ause": 706,
      "ade": 707,
      "ities": 708,
      "Ġdif": 709,
      "..": 710,
      "lect": 711,
      "Ġ4": 712,
      "Ġsee": 713,
      "ange": 714,
      "Ġem": 715,
      "Ġact": 716,
      "Th": 717,
      "oth": 718,
      "ph": 719,
      "we": 720,
      "Ġreg": 721,
      "Ġback": 722,
      "Ġra": 723,
      "ts": 724,
      "ĠYou": 725,
      "ool": 726,
      "Ġrep": 727,
      "cess": 728,
      "Ġ5": 729,
      "iness": 730,
      "day": 731,
      "Ġsy": 732,
      "ific": 733,
      "Ġshe": 734,
      "Ġgood": 735,
      "xt": 736,
      "ew": 737,
      "amp": 738,
      "ced": 739,
      "hen": 740,
      "Ġinv": 741,
      "ove": 742,
      "Ġmany": 743,
      "Ġrel": 744,
      "ric": 745,
      "iew": 746,
      "Ġown": 747,
      "Ġgreat": 748,
      "ract": 749,
      "Ġway": 750,
      "Ġdec": 751,
      "iss": 752,
      "fore": 753,
      "Ġtwo": 754,
      "ible": 755,
      "ob": 756,
      "fect": 757,
      "ility": 758,
      "ily": 759,
      "Ġpos": 760,
      "Ġbus": 761,
      "ures": 762,
      "urn": 763,
      "ting": 764,
      "uch": 765,
      "Ġshould": 766,
      "erson": 767,
      "als": 768,
      "Ġke": 769,
      "ife": 770,
      "row": 771,
      "Ġrem": 772,
      "Ġyears": 773,
      "ased": 774,
      "ert": 775,
      "Ġwhere": 776,
      "ec": 777,
      "Ġeven": 778,
      "Ġinform": 779,
      "Ġent": 780,
      "get": 781,
      "Ġstud": 782,
      "Ġset": 783,
      "oy": 784,
      "aw": 785,
      "Ġthen": 786,
      "Ġ19": 787,
      "Ġcould": 788,
      "ri": 789,
      "erm": 790,
      "elf": 791,
      "Ġcar": 792,
      "ational": 793,
      "Ġac": 794,
      "Ġfind": 795,
      "Ġstart": 796,
      "oint": 797,
      "Ġnow": 798,
      "Ġsm": 799,
      "eth": 800,
      "ular": 801,
      "'t": 802,
      "Ġbest": 803,
      "Ġrequ": 804,
      "Ġdesign": 805,
      "Ġafter": 806,
      "Ġgu": 807,
      "ience": 808,
      "Ġhigh": 809,
      "Ġsec": 810,
      "uring": 811,
      "line": 812,
      "ower": 813,
      "ward": 814,
      "velop": 815,
      "ustom": 816,
      "Ġloc": 817,
      "stem": 818,
      "Ġright": 819,
      "ont": 820,
      "ative": 821,
      "Ġplay": 822,
      "its": 823,
      "Ġfl": 824,
      "Ġfin": 825,
      "nds": 826,
      "Ġdiffe": 827,
      "Ġins": 828,
      "Ġsuch": 829,
      "ient": 830,
      "hes": 831,
      "Ġinst": 832,
      "Ġav": 833,
      "olog": 834,
      "Ġday": 835,
      "ident": 836,
      "Ġhome": 837,
      "ĠIf": 838,
      "Ġsur": 839,
      "ĠAs": 840,
      "Ġbr": 841,
      "Ġmuch": 842,
      "ty": 843,
      "Ġbusiness": 844,
      "pect": 845,
      "Ġdown": 846,
      "Ġsaid": 847,
      "ĠUn": 848,
      "rit": 849,
      "ath": 850,
      "com": 851,
      "ble": 852,
      "Ġlong": 853,
      "Ġatt": 854,
      "ject": 855,
      "Ġtake": 856,
      "arket": 857,
      "Ġdon": 858,
      "ĠWh": 859,
      "Ġinformation": 860,
      "ited": 861,
      "me": 862,
      "arch": 863,
      "Ġass": 864,
      "Ġperson": 865,
      "alth": 866,
      "ics": 867,
      "hip": 868,
      "gan": 869,
      "Ġche": 870,
      "ng": 871,
      "Ġmin": 872,
      "Ġmon": 873,
      "ener": 874,
      "),": 875,
      "Ġused": 876,
      "ĠRe": 877,
      "air": 878,
      "Ġread": 879,
      "ys": 880,
      "Ġcustom": 881,
      "Ġprovid": 882,
      "Ġ&": 883,
      "Ġinte": 884,
      "Ġfam": 885,
      "Ġprog": 886,
      "Ġmade": 887,
      "chn": 888,
      "Ġbecause": 889,
      "ĠCom": 890,
      "up": 891,
      "cy": 892,
      "Ġdid": 893,
      "Ġtoo": 894,
      "io": 895,
      "Ġvis": 896,
      "Ġdoes": 897,
      "Ġcre": 898,
      "ict": 899,
      "Ġsim": 900,
      "Ġdevelop": 901,
      "led": 902,
      "Ġbl": 903,
      "In": 904,
      "ix": 905,
      "chool": 906,
      "ata": 907,
      "ality": 908,
      "Ġshow": 909,
      "Ġthose": 910,
      "Ġbefore": 911,
      "Ġnum": 912,
      "arm": 913,
      "Ġsystem": 914,
      "Ġhere": 915,
      "ash": 916,
      "ives": 917,
      "Ġstr": 918,
      "Ġdisc": 919,
      "ven": 920,
      "Ġeas": 921,
      "arn": 922,
      "Ġmod": 923,
      "Ġbeing": 924,
      "Ġworld": 925,
      "other": 926,
      "Ġcall": 927,
      "Ġadv": 928,
      "ork": 929,
      "Ġwee": 930,
      "Ġpres": 931,
      "Ġart": 932,
      "ually": 933,
      "way": 934,
      "iving": 935,
      "Ġdifferent": 936,
      "Ġpost": 937,
      "Ġeach": 938,
      "Ġ$": 939,
      "ages": 940,
      "Ġend": 941,
      "ner": 942,
      "This": 943,
      "Ġmed": 944,
      "Ġexp": 945,
      "Ġdet": 946,
      "Ġlife": 947,
      "Ġcomple": 948,
      "Ġsupport": 949,
      "rest": 950,
      "ize": 951,
      "We": 952,
      "ull": 953,
      "und": 954,
      "Ġop": 955,
      "ĠPro": 956,
      "land": 957,
      "Ġsub": 958,
      "Ġagain": 959,
      "ĠFor": 960,
      "Ġret": 961,
      "Ġprocess": 962,
      "ince": 963,
      "ĠAnd": 964,
      "az": 965,
      "ci": 966,
      "ather": 967,
      "Ġmarket": 968,
      "ason": 969,
      "Ġcour": 970,
      "Ġlook": 971,
      "ues": 972,
      "Ġ6": 973,
      "Ġform": 974,
      "ouse": 975,
      "gg": 976,
      "Ġbo": 977,
      "Ġfree": 978,
      "Ġmem": 979,
      "Ġsk": 980,
      "ional": 981,
      "ness": 982,
      "Ġwhile": 983,
      "Ġtrans": 984,
      "ĠAl": 985,
      "Ġaut": 986,
      "Ġcur": 987,
      "Ġlove": 988,
      "Ġplace": 989,
      "Ġinter": 990,
      "Ġloo": 991,
      "Ġavail": 992,
      "Ġlast": 993,
      "ollow": 994,
      "Ġprogram": 995,
      "Ġlist": 996,
      "rib": 997,
      "ines": 998,
      "Ġser": 999,
      "Ġaround": 1000,
      "Ġteam": 1001,
      "ets": 1002,
      "lease": 1003,
      "cept": 1004,
      "Ġcompany": 1005,
      "read": 1006,
      "der": 1007,
      "ining": 1008,
      "Ġcare": 1009,
      "ave": 1010,
      "Ġpol": 1011,
      "uc": 1012,
      "ple": 1013,
      "ale": 1014,
      "Ġmat": 1015,
      "Ġcommun": 1016,
      "olut": 1017,
      "Ġlead": 1018,
      "Ġdr": 1019,
      "els": 1020,
      "Ġchild": 1021,
      "Ġopt": 1022,
      "Ġprof": 1023,
      "ank": 1024,
      "ways": 1025,
      "Ġreally": 1026,
      "Ġgra": 1027,
      "ten": 1028,
      "Ġcle": 1029,
      "ros": 1030,
      "Ġed": 1031,
      "irect": 1032,
      "ier": 1033,
      "Ġtechn": 1034,
      "ved": 1035,
      "Ġsom": 1036,
      "Ġgoing": 1037,
      "ĠNew": 1038,
      "ety": 1039,
      "ever": 1040,
      "Ġpur": 1041,
      "Ġstill": 1042,
      "Ġsign": 1043,
      "Ġfun": 1044,
      "de": 1045,
      "Ġdel": 1046,
      "imes": 1047,
      "oun": 1048,
      "eld": 1049,
      "Ġboth": 1050,
      "pr": 1051,
      "Ġtop": 1052,
      "Ġimport": 1053,
      "Ġavailable": 1054,
      "ĠDe": 1055,
      "ivers": 1056,
      "ween": 1057,
      "Ġvar": 1058,
      "Ġ7": 1059,
      "Ġcor": 1060,
      "Ġthink": 1061,
      "ene": 1062,
      "Ġlot": 1063,
      "Ġlar": 1064,
      "Ġval": 1065,
      "Ġsame": 1066,
      "Ġthough": 1067,
      "ĠAr": 1068,
      "ins": 1069,
      "ĠCl": 1070,
      "ior": 1071,
      "ized": 1072,
      "Ġfew": 1073,
      "ĠSh": 1074,
      "ax": 1075,
      "Ġservice": 1076,
      "Ġbetween": 1077,
      "Ġ10": 1078,
      "Ġfound": 1079,
      "Ġhand": 1080,
      "Ġhapp": 1081,
      "Ġext": 1082,
      "Ġ8": 1083,
      "ving": 1084,
      "Ġ200": 1085,
      "Ġbuild": 1086,
      "ired": 1087,
      "Ġappro": 1088,
      "Ġexperience": 1089,
      "Ġcount": 1090,
      "Ġpat": 1091,
      "roup": 1092,
      "Ġfollow": 1093,
      "Ġgener": 1094,
      "Ġplan": 1095,
      "Ġrun": 1096,
      "ĠSe": 1097,
      "ars": 1098,
      "Ġfeel": 1099,
      "ery": 1100,
      "Ġchar": 1101,
      "view": 1102,
      "ock": 1103,
      "Ġpub": 1104,
      "Ġmain": 1105,
      "Ġmonth": 1106,
      "Ġwater": 1107,
      "Ġposs": 1108,
      "ĠThey": 1109,
      "aut": 1110,
      "Ġdata": 1111,
      "Ġusing": 1112,
      "Ġint": 1113,
      "Ġide": 1114,
      "Ġoffer": 1115,
      "ants": 1116,
      "ittle": 1117,
      "au": 1118,
      "ĠAn": 1119,
      "Ġhealth": 1120,
      "Ġhim": 1121,
      "ware": 1122,
      "Ġty": 1123,
      "iqu": 1124,
      "Ġproper": 1125,
      "Ġkeep": 1126,
      "Ġallow": 1127,
      "Ġduring": 1128,
      "ton": 1129,
      "aking": 1130,
      "Ġprovide": 1131,
      "ĠBut": 1132,
      "ield": 1133,
      "Ġrest": 1134,
      "Ġref": 1135,
      "Ġorgan": 1136,
      "ern": 1137,
      "ology": 1138,
      "Ġresult": 1139,
      "Ġreal": 1140,
      "Ġ.": 1141,
      "Ġsure": 1142,
      "Ġpoint": 1143,
      "Ġable": 1144,
      "20": 1145,
      "Ġnumber": 1146,
      "Ġthings": 1147,
      "Ġalways": 1148,
      "Ġinterest": 1149,
      "ĠFr": 1150,
      "less": 1151,
      "Ġcent": 1152,
      "Ġopen": 1153,
      "Ġmust": 1154,
      "Ġwebs": 1155,
      "Ġcome": 1156,
      "Ġincluding": 1157,
      "Ġperform": 1158,
      "ĠThere": 1159,
      "Ġservices": 1160,
      "Ġsmall": 1161,
      "Ġpass": 1162,
      "Ġonline": 1163,
      "Ġ9": 1164,
      "stand": 1165,
      "ural": 1166,
      "ves": 1167,
      "thing": 1168,
      "000": 1169,
      "Ġthree": 1170,
      "Ġwithout": 1171,
      "Wh": 1172,
      "Ġoper": 1173,
      "ital": 1174,
      "Ġlittle": 1175,
      "ically": 1176,
      "Ġpay": 1177,
      "Ġfamily": 1178,
      "ists": 1179,
      "Ġbetter": 1180,
      "Ġfeat": 1181,
      "Ġiss": 1182,
      "self": 1183,
      "Ġgive": 1184,
      "ody": 1185,
      "bers": 1186,
      "Ġlevel": 1187,
      "Ġimportant": 1188,
      "ruct": 1189,
      "ms": 1190,
      "Ġcost": 1191,
      "ling": 1192,
      "Ġob": 1193,
      "ute": 1194,
      "ug": 1195,
      "ients": 1196,
      "Ġpartic": 1197,
      "oot": 1198,
      "ĠInd": 1199,
      "ĠLe": 1200,
      "Ġsay": 1201,
      "ross": 1202,
      "Ġef": 1203,
      "Ġstand": 1204,
      "meric": 1205,
      "gy": 1206,
      "ĠTe": 1207,
      "vern": 1208,
      "Ġspecial": 1209,
      "ien": 1210,
      "ared": 1211,
      "Ġfrie": 1212,
      "Ġschool": 1213,
      "ffic": 1214,
      "man": 1215,
      "ined": 1216,
      "Ġfact": 1217,
      "be": 1218,
      "!!": 1219,
      "Ġbra": 1220,
      "ĠSo": 1221,
      "Ġclass": 1222,
      "kes": 1223,
      "ething": 1224,
      "Ġconc": 1225,
      "Ġresp": 1226,
      "ccess": 1227,
      "ah": 1228,
      "Ġcontin": 1229,
      "Ġconf": 1230,
      "Ġincre": 1231,
      "Ġspec": 1232,
      "Ġtry": 1233,
      "ĠAd": 1234,
      "Ġrece": 1235,
      "alk": 1236,
      "loy": 1237,
      "Ġput": 1238,
      "arly": 1239,
      "Ġnext": 1240,
      "Ġlet": 1241,
      "Ġdef": 1242,
      "Ġdist": 1243,
      "ately": 1244,
      "Ġmus": 1245,
      "Ġarea": 1246,
      "Ġopp": 1247,
      "Ġbel": 1248,
      "ider": 1249,
      "Ġpower": 1250,
      "ished": 1251,
      "ĠBe": 1252,
      "Ġsomething": 1253,
      "It": 1254,
      "ĠHow": 1255,
      "Ġsince": 1256,
      "Ġbook": 1257,
      "Ġwithin": 1258,
      "Ġve": 1259,
      "Ġinf": 1260,
      "If": 1261,
      "Ġphot": 1262,
      "uss": 1263,
      "Ġintern": 1264,
      "ours": 1265,
      "ertain": 1266,
      "ision": 1267,
      "joy": 1268,
      "ĠShe": 1269,
      "atch": 1270,
      "Ġquest": 1271,
      "Ġaccess": 1272,
      "Ġproducts": 1273,
      "Ġfil": 1274,
      "ium": 1275,
      "ention": 1276,
      "ards": 1277,
      "Ġgrow": 1278,
      "Ġfull": 1279,
      "ted": 1280,
      "Ġcurrent": 1281,
      "ĠAmeric": 1282,
      "Ġdirect": 1283,
      "ral": 1284,
      "ortun": 1285,
      "con": 1286,
      "Ġbig": 1287,
      "Ġreport": 1288,
      "ploy": 1289,
      "Ġwr": 1290,
      "iver": 1291,
      "dition": 1292,
      "ential": 1293,
      "ĠOn": 1294,
      "Ġquality": 1295,
      "Ġmight": 1296,
      "ĠPl": 1297,
      "ĠEx": 1298,
      "Ġaddition": 1299,
      "Ġanother": 1300,
      "rence": 1301,
      "Ġgroup": 1302,
      "port": 1303,
      "ames": 1304,
      "Ġproble": 1305,
      "co": 1306,
      "Ġbuy": 1307,
      "Ġtest": 1308,
      "oney": 1309,
      "Ġcontro": 1310,
      "Ġwebsite": 1311,
      "Ġinvest": 1312,
      "Ġorder": 1313,
      "Ġfac": 1314,
      "Ġworking": 1315,
      "Ġsit": 1316,
      "Ġsite": 1317,
      "Ġchange": 1318,
      "Ġpract": 1319,
      "ivid": 1320,
      "Ġproduct": 1321,
      "Ġprofess": 1322,
      "Ġest": 1323,
      "ently": 1324,
      "Ġsecond": 1325,
      "ense": 1326,
      "rist": 1327,
      "Ġsal": 1328,
      "Ġweek": 1329,
      "Ġstate": 1330,
      "Ġblo": 1331,
      "agement": 1332,
      "Ġeng": 1333,
      "Ġdays": 1334,
      "Ġgot": 1335,
      "Ġroom": 1336,
      "ator": 1337,
      "eng": 1338,
      "Ġold": 1339,
      "Ġhard": 1340,
      "ĠQ": 1341,
      "Ġgr": 1342,
      "the": 1343,
      "Ġbro": 1344,
      "Ġhead": 1345,
      "Ġvisit": 1346,
      "Ġexpl": 1347,
      "Ġlooking": 1348,
      "Ġindust": 1349,
      "Ġfood": 1350,
      "Ġnever": 1351,
      "Ġmaking": 1352,
      "Ġgl": 1353,
      "ding": 1354,
      "por": 1355,
      "ĠAll": 1356,
      "ission": 1357,
      "Ġtoday": 1358,
      "Ġequ": 1359,
      "ipp": 1360,
      "Ġunt": 1361,
      "ration": 1362,
      "cing": 1363,
      "Ġlight": 1364,
      "Ġel": 1365,
      "gin": 1366,
      "Ġmeet": 1367,
      "Ġenjoy": 1368,
      "Ġprom": 1369,
      "ills": 1370,
      "load": 1371,
      "Ġcap": 1372,
      "Ġpop": 1373,
      "Ġsl": 1374,
      "Ġrese": 1375,
      "ases": 1376,
      "Ġsuccess": 1377,
      "Ġapplic": 1378,
      "Ġwin": 1379,
      "Ġcr": 1380,
      "ĠâĢĺ": 1381,
      "Ġgame": 1382,
      "You": 1383,
      "Ġstudents": 1384,
      "ote": 1385,
      "Ġevent": 1386,
      "Ġchildren": 1387,
      "aterial": 1388,
      "ability": 1389,
      "ney": 1390,
      "Ġimpro": 1391,
      "Ġeasy": 1392,
      "ope": 1393,
      "reen": 1394,
      "ron": 1395,
      "Ġcheck": 1396,
      "Ġprev": 1397,
      "Ġlocal": 1398,
      "Ġmov": 1399,
      "Ġproject": 1400,
      "Ġair": 1401,
      "iversity": 1402,
      "ieve": 1403,
      "ump": 1404,
      "Ġeffect": 1405,
      "iven": 1406,
      "Ġlaw": 1407,
      "Ġunderstand": 1408,
      "Ġcourse": 1409,
      "Ġless": 1410,
      "ik": 1411,
      "oss": 1412,
      "here": 1413,
      "50": 1414,
      "ĠZ": 1415,
      "ats": 1416,
      "Ġpast": 1417,
      "ems": 1418,
      "ived": 1419,
      "Ġuntil": 1420,
      "nding": 1421,
      "ĠTo": 1422,
      "ised": 1423,
      "ird": 1424,
      "ify": 1425,
      "Ġturn": 1426,
      "Ġpersonal": 1427,
      "ĠSc": 1428,
      "ĠSp": 1429,
      "Ġlarge": 1430,
      "ĠAf": 1431,
      "Ġlearn": 1432,
      "Ġdem": 1433,
      "Ġview": 1434,
      "Ġleg": 1435,
      "med": 1436,
      "Ġann": 1437,
      "Ġnat": 1438,
      "itions": 1439,
      "Ġneeds": 1440,
      "ogra": 1441,
      "rop": 1442,
      "Ġcase": 1443,
      "Ġbre": 1444,
      "Ġprote": 1445,
      "ified": 1446,
      "Ġpresent": 1447,
      "let": 1448,
      ".\"": 1449,
      "Ġaway": 1450,
      "Ġtak": 1451,
      "ĠCol": 1452,
      "Ġi": 1453,
      "ember": 1454,
      "Ġtru": 1455,
      "Ġcreat": 1456,
      "tain": 1457,
      "Ġconst": 1458,
      "Ġmet": 1459,
      "As": 1460,
      "ĠUS": 1461,
      "Ġchang": 1462,
      "Ġbas": 1463,
      "orn": 1464,
      "ique": 1465,
      "soci": 1466,
      "iron": 1467,
      "cu": 1468,
      "Ġca": 1469,
      "Ġdetail": 1470,
      "Ġcomplete": 1471,
      "work": 1472,
      "Ġoften": 1473,
      "ĠWith": 1474,
      "Ġhouse": 1475,
      "ĠIs": 1476,
      "Ġ18": 1477,
      "Ġmaterial": 1478,
      "Ġterm": 1479,
      "gether": 1480,
      "Ġindivid": 1481,
      "Ġpossible": 1482,
      "inal": 1483,
      "vernment": 1484,
      "orm": 1485,
      "ĠBl": 1486,
      "cent": 1487,
      "ĠMan": 1488,
      "of": 1489,
      "Ġmill": 1490,
      "Ġdi": 1491,
      "Ġ12": 1492,
      "ret": 1493,
      "Ġalong": 1494,
      "Ġname": 1495,
      "utes": 1496,
      "Ġsing": 1497,
      "lection": 1498,
      "Ġhum": 1499,
      "Ġpublic": 1500,
      "ization": 1501,
      "Ġexc": 1502,
      "outh": 1503,
      "ample": 1504,
      "Ġbeaut": 1505,
      "uro": 1506,
      "Ġmoney": 1507,
      "ĠPh": 1508,
      "ode": 1509,
      "Ġcontact": 1510,
      "room": 1511,
      "Ġtogether": 1512,
      "ered": 1513,
      "Ġwhy": 1514,
      "Ġaccount": 1515,
      "ex": 1516,
      "ĠPr": 1517,
      "nded": 1518,
      "ocus": 1519,
      "ush": 1520,
      "bo": 1521,
      "Ġactiv": 1522,
      "ĠCon": 1523,
      "ably": 1524,
      "rip": 1525,
      "side": 1526,
      "ott": 1527,
      "Ġdev": 1528,
      "Ġpo": 1529,
      "aster": 1530,
      "Ġbeh": 1531,
      "Ġtreat": 1532,
      "itive": 1533,
      "Ġrecord": 1534,
      "Ġstore": 1535,
      "arent": 1536,
      "min": 1537,
      "Ġindividual": 1538,
      ",âĢĿ": 1539,
      "olution": 1540,
      "ured": 1541,
      "Ġbased": 1542,
      "ĠAt": 1543,
      "ising": 1544,
      "Ġpain": 1545,
      "ream": 1546,
      "Ġconne": 1547,
      "Ġcreate": 1548,
      "ger": 1549,
      "ips": 1550,
      "Ġsoft": 1551,
      "Ġworks": 1552,
      "Ġside": 1553,
      "Ġelect": 1554,
      "ism": 1555,
      "Ġtimes": 1556,
      "ina": 1557,
      "ĠCan": 1558,
      "Ġemploy": 1559,
      "Ġhot": 1560,
      "Ġjo": 1561,
      "Ġhaving": 1562,
      "Ġenough": 1563,
      "part": 1564,
      "Ġpa": 1565,
      "aring": 1566,
      "Ġens": 1567,
      "hor": 1568,
      "Ġmar": 1569,
      "âĢ¦": 1570,
      "ids": 1571,
      "osed": 1572,
      "Ġpot": 1573,
      "ER": 1574,
      "omen": 1575,
      "ains": 1576,
      "Ġask": 1577,
      "Ġbene": 1578,
      "orth": 1579,
      "ĠCent": 1580,
      "Ġexpect": 1581,
      "Ġperfect": 1582,
      "ĠJo": 1583,
      "Ġmakes": 1584,
      "ley": 1585,
      "Ġrequire": 1586,
      "Ġopportun": 1587,
      "Ġagainst": 1588,
      "Ġnight": 1589,
      "âĢľ": 1590,
      "ĠChrist": 1591,
      "Ġword": 1592,
      "Ġinclude": 1593,
      "ency": 1594,
      "...": 1595,
      "ries": 1596,
      "Ġcomes": 1597,
      "oice": 1598,
      "ories": 1599,
      "Ġvide": 1600,
      "Ġmove": 1601,
      "Ġhist": 1602,
      "Ġmeans": 1603,
      "ury": 1604,
      "Ġ0": 1605,
      "ĠWhat": 1606,
      "Ġquick": 1607,
      "Ġcontrol": 1608,
      "ged": 1609,
      "ination": 1610,
      "Ġbody": 1611,
      "Ġdone": 1612,
      "pecial": 1613,
      "Ġeduc": 1614,
      "uture": 1615,
      "ĠWhen": 1616,
      "Ġclo": 1617,
      "ready": 1618,
      "Ġfocus": 1619,
      "Ġsever": 1620,
      "Ġresearch": 1621,
      "Ġfour": 1622,
      "att": 1623,
      "Ġ15": 1624,
      "Ġvari": 1625,
      "Ġtem": 1626,
      "Ġlow": 1627,
      "Ġdra": 1628,
      "Ġla": 1629,
      "Ġcommunity": 1630,
      "Ġcou": 1631,
      "iting": 1632,
      "Ġjob": 1633,
      "ĠThat": 1634,
      "Ġdevelopment": 1635,
      "fer": 1636,
      "Ġsw": 1637,
      "Ġce": 1638,
      "Ġthing": 1639,
      "Ġtool": 1640,
      "ateg": 1641,
      "19": 1642,
      "ann": 1643,
      "Ġfav": 1644,
      "Ġspecific": 1645,
      "ĠComm": 1646,
      "lish": 1647,
      "lement": 1648,
      "go": 1649,
      "ĠRes": 1650,
      "yle": 1651,
      "urther": 1652,
      "Ġshare": 1653,
      "br": 1654,
      "Ġleft": 1655,
      "Ġseveral": 1656,
      "10": 1657,
      "ee": 1658,
      "Ġpage": 1659,
      "Ġothers": 1660,
      "Ġbecome": 1661,
      "jor": 1662,
      "Ġpar": 1663,
      "Ġlive": 1664,
      "ume": 1665,
      "Ġocc": 1666,
      "Ġnon": 1667,
      "ering": 1668,
      "urity": 1669,
      "ĠOr": 1670,
      "Ġkind": 1671,
      "Ġcompan": 1672,
      "Ġalready": 1673,
      "Ġbenef": 1674,
      "ai": 1675,
      "ĠThese": 1676,
      "viron": 1677,
      "Ġfield": 1678,
      "Ġshort": 1679,
      "ĠNo": 1680,
      "Ġarr": 1681,
      "ĠOur": 1682,
      "Ġprice": 1683,
      "enn": 1684,
      "Ġhours": 1685,
      "inc": 1686,
      "Ġconsider": 1687,
      "Ġredu": 1688,
      "ead": 1689,
      "Ġris": 1690,
      "Ġtraining": 1691,
      "Ġindustry": 1692,
      "ograph": 1693,
      "Ġmembers": 1694,
      "Ġcertain": 1695,
      "Ġreview": 1696,
      "iful": 1697,
      "Ġrepl": 1698,
      "Ġey": 1699,
      "Ġboo": 1700,
      "app": 1701,
      "icle": 1702,
      "Ġseason": 1703,
      "Ġes": 1704,
      "ĠTr": 1705,
      "Ġstep": 1706,
      "Ġspace": 1707,
      "Ġmusic": 1708,
      "uck": 1709,
      "Ġlim": 1710,
      "Ġemail": 1711,
      "Ġtre": 1712,
      "Ġcompet": 1713,
      "Ġline": 1714,
      "Ġever": 1715,
      "rap": 1716,
      "Ġrange": 1717,
      "aim": 1718,
      "aff": 1719,
      "Ġsol": 1720,
      "AN": 1721,
      "Ġfuture": 1722,
      "Ġmult": 1723,
      "ither": 1724,
      "Ġmind": 1725,
      "omme": 1726,
      "Ġtyp": 1727,
      "fact": 1728,
      "Ġoffers": 1729,
      "Ġ30": 1730,
      "Ġdoing": 1731,
      "ones": 1732,
      "ĠSu": 1733,
      "sel": 1734,
      "alf": 1735,
      "Ġvers": 1736,
      "Ġproperty": 1737,
      "ball": 1738,
      "anks": 1739,
      "Ġbelow": 1740,
      "ĠCo": 1741,
      "Ġnet": 1742,
      "Ġdeal": 1743,
      "Ġbit": 1744,
      "ands": 1745,
      "ches": 1746,
      "Ġreturn": 1747,
      "ots": 1748,
      "Ġchoo": 1749,
      "Ġcover": 1750,
      "ane": 1751,
      "Ġhig": 1752,
      "Ġpurch": 1753,
      "err": 1754,
      "ĠâĢĶ": 1755,
      "Ġcamp": 1756,
      "ĠMy": 1757,
      "Ġgetting": 1758,
      "Ġheart": 1759,
      "wards": 1760,
      "Ġcustomers": 1761,
      "ief": 1762,
      "Ġhold": 1763,
      "ape": 1764,
      "ĠGod": 1765,
      "ances": 1766,
      "osp": 1767,
      "Ġclean": 1768,
      "Ġwrit": 1769,
      "ides": 1770,
      "ift": 1771,
      "ĠTra": 1772,
      "Ġweb": 1773,
      "Ġcountry": 1774,
      "ĠComp": 1775,
      "AS": 1776,
      "ĠEng": 1777,
      "Ġpriv": 1778,
      "Ġsocial": 1779,
      "Ġ'": 1780,
      "Ġtell": 1781,
      "Ġwa": 1782,
      "Ġcustomer": 1783,
      "Ġmajor": 1784,
      "Ġrecomme": 1785,
      "Ġstarted": 1786,
      "For": 1787,
      "urs": 1788,
      "Ġstay": 1789,
      "Ġcompanies": 1790,
      "Ġonce": 1791,
      "Ġleast": 1792,
      "Ġbring": 1793,
      "ilities": 1794,
      "cell": 1795,
      "ĠMar": 1796,
      "ording": 1797,
      "most": 1798,
      "fort": 1799,
      "Ġanal": 1800,
      "arning": 1801,
      "ilt": 1802,
      "ference": 1803,
      "Ġacross": 1804,
      "irt": 1805,
      "vironment": 1806,
      "ners": 1807,
      "Ġprep": 1808,
      "ĠUniversity": 1809,
      "by": 1810,
      "augh": 1811,
      "Ġorig": 1812,
      "Ġkey": 1813,
      "Ġfoot": 1814,
      "jects": 1815,
      "Ġsum": 1816,
      "atic": 1817,
      "Ġpack": 1818,
      "ĠAm": 1819,
      "Ġactually": 1820,
      "Ġoptions": 1821,
      "Ġident": 1822,
      "Ġet": 1823,
      "conom": 1824,
      "Ġminutes": 1825,
      "Ġmonths": 1826,
      "oring": 1827,
      "Ġfar": 1828,
      "Ġmanagement": 1829,
      "Ġinstall": 1830,
      "Ġchall": 1831,
      "30": 1832,
      "Ġmean": 1833,
      "ledge": 1834,
      "Ġsuper": 1835,
      "Ġparticular": 1836,
      "Ġport": 1837,
      "Ġinvol": 1838,
      "Ġplease": 1839,
      "Ġfore": 1840,
      "Ġstory": 1841,
      "What": 1842,
      "Ġcred": 1843,
      "ctor": 1844,
      "ĠIntern": 1845,
      "Ġreason": 1846,
      "Ġcomb": 1847,
      "Ġgovernment": 1848,
      "Ġdidn": 1849,
      "Ġclose": 1850,
      "ript": 1851,
      "sh": 1852,
      "Ġexample": 1853,
      "ĠMay": 1854,
      "There": 1855,
      "Ġbuilding": 1856,
      "Ġsound": 1857,
      "ows": 1858,
      "Ġthought": 1859,
      "He": 1860,
      "Ġste": 1861,
      "ribut": 1862,
      "Ġdam": 1863,
      "ource": 1864,
      "Ġfeatures": 1865,
      "aces": 1866,
      "'re": 1867,
      "Ġcut": 1868,
      "Ġpict": 1869,
      "Ġbegin": 1870,
      "iday": 1871,
      "ources": 1872,
      "ethod": 1873,
      "ister": 1874,
      "Ġprofessional": 1875,
      "Ġstrong": 1876,
      "ĠEuro": 1877,
      "raft": 1878,
      "IN": 1879,
      "ored": 1880,
      "illed": 1881,
      "ensive": 1882,
      "pos": 1883,
      "Ġmil": 1884,
      "Ġener": 1885,
      "Ġvalue": 1886,
      "not": 1887,
      "Ġyoung": 1888,
      "arl": 1889,
      "Ġmom": 1890,
      "Ġsell": 1891,
      "Ġwond": 1892,
      "cks": 1893,
      "Ġbeautiful": 1894,
      "Ġtas": 1895,
      "Ġrele": 1896,
      "ĠFl": 1897,
      "Ġ2018": 1898,
      "ĠÂ": 1899,
      "Ġpolic": 1900,
      "ES": 1901,
      "edic": 1902,
      "rodu": 1903,
      "Ġsearch": 1904,
      "ights": 1905,
      "cle": 1906,
      "pend": 1907,
      "Ġenc": 1908,
      "Ġfollowing": 1909,
      "unch": 1910,
      "ĠInst": 1911,
      "Ġsingle": 1912,
      ".,": 1913,
      "Ġexperien": 1914,
      "Ġoffic": 1915,
      "opp": 1916,
      "Ġtechnology": 1917,
      "fully": 1918,
      "Ġrespons": 1919,
      "Ġ11": 1920,
      "Ġface": 1921,
      "Ġtot": 1922,
      "Ġeverything": 1923,
      "Ġimprove": 1924,
      "ps": 1925,
      "Ġbed": 1926,
      "Ġhope": 1927,
      "Ġcalled": 1928,
      "Ġpie": 1929,
      "ĠRo": 1930,
      "Ġupd": 1931,
      "yl": 1932,
      "Ġz": 1933,
      "arr": 1934,
      "Ġcity": 1935,
      "Ġwhole": 1936,
      "iod": 1937,
      "ĠGu": 1938,
      "ford": 1939,
      "Ġrepres": 1940,
      "Ġvideo": 1941,
      "Ġfre": 1942,
      "Ġdoesn": 1943,
      "ĠApp": 1944,
      "Ġenvironment": 1945,
      "Ġhappen": 1946,
      "Ġfriends": 1947,
      "Ġperformance": 1948,
      "'ve": 1949,
      "sw": 1950,
      "âĢĶ": 1951,
      "Ġassist": 1952,
      "gra": 1953,
      "Ġtravel": 1954,
      "af": 1955,
      "Ġprovides": 1956,
      "Ġsimple": 1957,
      "ĠHowever": 1958,
      "Ġfurther": 1959,
      "Ġmanag": 1960,
      "ww": 1961,
      "wh": 1962,
      "ival": 1963,
      "Ġdiscuss": 1964,
      "An": 1965,
      "Ġcult": 1966,
      "Ġcommon": 1967,
      "Ġresults": 1968,
      "On": 1969,
      "ibility": 1970,
      "Ġ199": 1971,
      "ched": 1972,
      "Ġpan": 1973,
      "ĠDo": 1974,
      "lished": 1975,
      "Ġcame": 1976,
      "Ġpress": 1977,
      "do": 1978,
      "tt": 1979,
      "Ġissues": 1980,
      "Ġappear": 1981,
      "Ġstudy": 1982,
      "St": 1983,
      "lex": 1984,
      "though": 1985,
      "Ġquestions": 1986,
      "Ġmillion": 1987,
      "Ġwon": 1988,
      "Ġgiven": 1989,
      "ided": 1990,
      "Ġvol": 1991,
      "ained": 1992,
      "When": 1993,
      "bal": 1994,
      "ges": 1995,
      "mber": 1996,
      "Ġmen": 1997,
      "Ġselect": 1998,
      "Ġproblem": 1999,
      "uff": 2000,
      "Ġliving": 2001,
      "Ġfriend": 2002,
      "Ġvarious": 2003,
      "Ġpercent": 2004,
      "itted": 2005,
      "over": 2006,
      ",\"": 2007,
      "Ġì": 2008,
      "pecially": 2009,
      "Ġwind": 2010,
      "Ġabove": 2011,
      "Ġrequest": 2012,
      "ply": 2013,
      "che": 2014,
      "Ġant": 2015,
      "Ġwhether": 2016,
      "gr": 2017,
      "cl": 2018,
      "Ġearly": 2019,
      "Ġareas": 2020,
      "Ġensure": 2021,
      "Ġdue": 2022,
      "Ġsecurity": 2023,
      "Ġhost": 2024,
      "une": 2025,
      "Ġsomeone": 2026,
      "How": 2027,
      "aving": 2028,
      "Ġrequired": 2029,
      "ians": 2030,
      "orld": 2031,
      "ancial": 2032,
      "Ġyet": 2033,
      "Ġcharact": 2034,
      "imate": 2035,
      "ĠCont": 2036,
      "Ġtal": 2037,
      "Ġamount": 2038,
      "orts": 2039,
      "Ġcomput": 2040,
      "Ġenergy": 2041,
      "Ġknown": 2042,
      "Ġeither": 2043,
      "acy": 2044,
      "crib": 2045,
      "Ġfail": 2046,
      "12": 2047,
      "ĠSchool": 2048,
      "Ġunique": 2049,
      "Ġtype": 2050,
      "irm": 2051,
      "resh": 2052,
      "Ġtour": 2053,
      "Ġseen": 2054,
      "ufact": 2055,
      "Ġ/": 2056,
      "azing": 2057,
      "Ġauthor": 2058,
      "urance": 2059,
      "AT": 2060,
      "ster": 2061,
      "idence": 2062,
      "ĠFe": 2063,
      "Ġidea": 2064,
      "cted": 2065,
      "ĠBr": 2066,
      "ĠUnited": 2067,
      "hn": 2068,
      "reet": 2069,
      "lege": 2070,
      "'m": 2071,
      "ruction": 2072,
      "Ġcard": 2073,
      "Ġlater": 2074,
      "ables": 2075,
      "Ġcontent": 2076,
      "fic": 2077,
      "Ġdocu": 2078,
      "Ġeveryone": 2079,
      "Ġhuman": 2080,
      "idd": 2081,
      "hers": 2082,
      "Ġcontract": 2083,
      "Ġaddress": 2084,
      "gs": 2085,
      "urch": 2086,
      "Ġamong": 2087,
      "ggest": 2088,
      "Ġpotential": 2089,
      "Ġchoose": 2090,
      "Ġtaking": 2091,
      "Ġwomen": 2092,
      "ulation": 2093,
      "Ġperiod": 2094,
      "Ġmot": 2095,
      "Ġneeded": 2096,
      "ĠDr": 2097,
      "Ġtook": 2098,
      "ĠX": 2099,
      "ĠSy": 2100,
      "ued": 2101,
      "Ġsays": 2102,
      "ature": 2103,
      "oll": 2104,
      "ĠEurope": 2105,
      "Ġmethod": 2106,
      "ogn": 2107,
      "Ġexam": 2108,
      "Ġfront": 2109,
      "Ġmach": 2110,
      "Ġwhite": 2111,
      "Ġincludes": 2112,
      "Ġsignific": 2113,
      "Ġmess": 2114,
      "Ġmag": 2115,
      "Ġknowledge": 2116,
      "Ġcommunic": 2117,
      "Ġfund": 2118,
      "Ġbar": 2119,
      "Ġprovided": 2120,
      "ĠAmerican": 2121,
      "Ġsize": 2122,
      "ĠMe": 2123,
      "Ġclaim": 2124,
      "Ġentire": 2125,
      "ites": 2126,
      "Ġinit": 2127,
      "ĠSte": 2128,
      "Ġsoftware": 2129,
      "Ġess": 2130,
      "Ġflo": 2131,
      "Ġeconom": 2132,
      "omes": 2133,
      "Ġnews": 2134,
      "Ġdesigned": 2135,
      "selves": 2136,
      "aur": 2137,
      "asing": 2138,
      "ops": 2139,
      "Ġetc": 2140,
      "mb": 2141,
      "ony": 2142,
      "Ġflow": 2143,
      "Ġparent": 2144,
      "Ġ16": 2145,
      "cer": 2146,
      "vert": 2147,
      "Ġrisk": 2148,
      "Ġaud": 2149,
      "oon": 2150,
      "'ll": 2151,
      "Ġsuggest": 2152,
      "Ġ100": 2153,
      "ĠServ": 2154,
      "Ġeffective": 2155,
      "ental": 2156,
      "ok": 2157,
      "Ġcond": 2158,
      "Ġwanted": 2159,
      "ON": 2160,
      "li": 2161,
      "Ġposition": 2162,
      "Ġdetails": 2163,
      "inking": 2164,
      "Ġyourself": 2165,
      "ters": 2166,
      "Ġwent": 2167,
      "Ġlat": 2168,
      "eral": 2169,
      "ĠOne": 2170,
      "Ġbelieve": 2171,
      "Ġfavor": 2172,
      "rom": 2173,
      "gest": 2174,
      "Ġstaff": 2175,
      "ĠGo": 2176,
      "nov": 2177,
      "Ġnecess": 2178,
      "Ġ17": 2179,
      "Ġroad": 2180,
      "Ġagree": 2181,
      "back": 2182,
      "cript": 2183,
      "elt": 2184,
      "Ġcomfort": 2185,
      "ĠDes": 2186,
      "opy": 2187,
      "Ġ24": 2188,
      "pro": 2189,
      "Ġsales": 2190,
      "hing": 2191,
      "Ġrelations": 2192,
      "Ġways": 2193,
      "tend": 2194,
      "Ġclients": 2195,
      "Ġparty": 2196,
      "Ġcir": 2197,
      "ĠChe": 2198,
      "irl": 2199,
      "Ġprob": 2200,
      "Ġcollect": 2201,
      "iously": 2202,
      "Ġmor": 2203,
      "Ġnear": 2204,
      "ĠNe": 2205,
      "Ġcolor": 2206,
      "Ġseries": 2207,
      "Ġusers": 2208,
      "Ġfive": 2209,
      "come": 2210,
      "ators": 2211,
      "anced": 2212,
      "Ġeff": 2213,
      "iple": 2214,
      "Ġespecially": 2215,
      "abor": 2216,
      "Ġoffice": 2217,
      "mit": 2218,
      "Ġassoci": 2219,
      "Ġthird": 2220,
      "Ġmedia": 2221,
      "AR": 2222,
      "Ġele": 2223,
      "ctions": 2224,
      "Ġgames": 2225,
      "Ġ14": 2226,
      "ĠYour": 2227,
      "Ġlearning": 2228,
      "Ġquite": 2229,
      "reme": 2230,
      "Ġhalf": 2231,
      "Ġskin": 2232,
      "Ġclear": 2233,
      "Ġnatural": 2234,
      "ficult": 2235,
      "ises": 2236,
      "aps": 2237,
      "new": 2238,
      "Ġlikely": 2239,
      "Ġautom": 2240,
      "arget": 2241,
      "ĠEn": 2242,
      "Ġsoon": 2243,
      "rew": 2244,
      "Ġself": 2245,
      "play": 2246,
      "Ġincrease": 2247,
      "Ġengine": 2248,
      "Ġbreak": 2249,
      "Ġwatch": 2250,
      "Ġeducation": 2251,
      "So": 2252,
      "ille": 2253,
      "xim": 2254,
      "Ġach": 2255,
      "ino": 2256,
      "Ġmanufact": 2257,
      "Ġanything": 2258,
      "Ġbox": 2259,
      "Ġdou": 2260,
      "Ġstock": 2261,
      "Ġalmost": 2262,
      "alls": 2263,
      "Ġpopular": 2264,
      "lus": 2265,
      "Ġsat": 2266,
      "medi": 2267,
      "Ġ,": 2268,
      "Ġansw": 2269,
      "Ġregard": 2270,
      "Ġparticip": 2271,
      "Ġrepresent": 2272,
      "verage": 2273,
      "Ġaccept": 2274,
      "ma": 2275,
      "ring": 2276,
      "Ġful": 2277,
      "ilar": 2278,
      "Ġdownload": 2279,
      "Ġmiss": 2280,
      "ĠMin": 2281,
      "Ġsafe": 2282,
      "Ġaccom": 2283,
      "Ġadded": 2284,
      "uation": 2285,
      "Ġsystems": 2286,
      "uge": 2287,
      "where": 2288,
      "edding": 2289,
      "Ġ25": 2290,
      "Ġevents": 2291,
      "Ġdifficult": 2292,
      "Ġfinancial": 2293,
      "ĠCity": 2294,
      "15": 2295,
      "Ġtable": 2296,
      "Ġage": 2297,
      "Ġusually": 2298,
      "ĠGe": 2299,
      "rict": 2300,
      "Ġblack": 2301,
      "ĠCar": 2302,
      "Ġtrack": 2303,
      ".âĢĿ": 2304,
      "Ġtax": 2305,
      "ĠCount": 2306,
      "Ġexist": 2307,
      "astic": 2308,
      "Ġphone": 2309,
      "Ġelse": 2310,
      "Ġhistory": 2311,
      "Ġsignificant": 2312,
      "Ġred": 2313,
      "Ġago": 2314,
      "Ġsimply": 2315,
      "Ġapplication": 2316,
      "Ġcrit": 2317,
      "Ġfit": 2318,
      "Ġhy": 2319,
      "Ġprojects": 2320,
      "Ġfunction": 2321,
      "Ġforward": 2322,
      "Ġadditional": 2323,
      "itch": 2324,
      "Ġseem": 2325,
      "Ġregular": 2326,
      "Ġhowever": 2327,
      "Ġquestion": 2328,
      "nam": 2329,
      "Ġwide": 2330,
      "Ġoutside": 2331,
      "Ġtext": 2332,
      "Ġproblems": 2333,
      "Ġwonder": 2334,
      "ler": 2335,
      "ĠSouth": 2336,
      "Ġhappy": 2337,
      "book": 2338,
      "par": 2339,
      "Ġdate": 2340,
      "Ġstat": 2341,
      "ification": 2342,
      "Ġdig": 2343,
      "ipment": 2344,
      "angu": 2345,
      "Ġrather": 2346,
      "Ġapproach": 2347,
      "Ġpractice": 2348,
      "Ġcredit": 2349,
      "Ġ2017": 2350,
      "Ġland": 2351,
      "Ġstyle": 2352,
      "Ġfast": 2353,
      "Ġglo": 2354,
      "OM": 2355,
      "Ġoil": 2356,
      "Ġreceive": 2357,
      "ox": 2358,
      "rown": 2359,
      "Ġfamil": 2360,
      "Ġcool": 2361,
      "Ġthroughout": 2362,
      "face": 2363,
      "Ġmeas": 2364,
      "Ġready": 2365,
      "ground": 2366,
      "Ġbad": 2367,
      "Ġspeak": 2368,
      "Ġdeterm": 2369,
      "Ġpick": 2370,
      "ĠCal": 2371,
      "ĠPe": 2372,
      "Ġchoice": 2373,
      "my": 2374,
      "etimes": 2375,
      "ĠAust": 2376,
      "Ġexcell": 2377,
      "Ġphys": 2378,
      "11": 2379,
      "obile": 2380,
      "Ġopportunity": 2381,
      "Ġconsum": 2382,
      "Ġrelationship": 2383,
      "Ġimpact": 2384,
      "Ġideas": 2385,
      "Ġmaterials": 2386,
      "ibr": 2387,
      "Ġamazing": 2388,
      "Ġrecommend": 2389,
      "Ġdrive": 2390,
      "Ġlink": 2391,
      "Ġrout": 2392,
      "Ġjour": 2393,
      "Ġsent": 2394,
      "Ġcal": 2395,
      "aily": 2396,
      "ression": 2397,
      "olutions": 2398,
      "Ġcorre": 2399,
      "time": 2400,
      "oura": 2401,
      "ĠMed": 2402,
      "Ġissue": 2403,
      "icro": 2404,
      "Ġexpert": 2405,
      "Ġapply": 2406,
      "Ġhigher": 2407,
      "ees": 2408,
      "Ġextra": 2409,
      "Ġcontinue": 2410,
      "Ġtakes": 2411,
      "ging": 2412,
      "Ġinsp": 2413,
      "Ġbrand": 2414,
      "Ġsaf": 2415,
      "Ġcoll": 2416,
      "Ġmatter": 2417,
      "gle": 2418,
      "ux": 2419,
      "Ġlay": 2420,
      "ditional": 2421,
      "Ġannoun": 2422,
      "Ġbooks": 2423,
      "oid": 2424,
      "head": 2425,
      "Ġfire": 2426,
      "ĠJan": 2427,
      "Ġcreated": 2428,
      "Ġtown": 2429,
      "Ġabs": 2430,
      "Ġwords": 2431,
      "Ġsle": 2432,
      "Ġrecogn": 2433,
      "ĠAfter": 2434,
      "put": 2435,
      "Ġtick": 2436,
      "fficient": 2437,
      "ĠDis": 2438,
      "Ġpoints": 2439,
      "Ġrecently": 2440,
      "Ġstandard": 2441,
      "Ġcoming": 2442,
      "Ġ13": 2443,
      "ĠIndia": 2444,
      "Ġconditions": 2445,
      "ĠNot": 2446,
      "Ġaction": 2447,
      "ĠIm": 2448,
      "Ġanim": 2449,
      "Ġtaken": 2450,
      "Our": 2451,
      "To": 2452,
      "ĠUK": 2453,
      "ĠKe": 2454,
      "Ġbuilt": 2455,
      "Ġskills": 2456,
      "Ġtrying": 2457,
      "Ġtou": 2458,
      "ĠPol": 2459,
      "Ġcurrently": 2460,
      "Ġchanges": 2461,
      "OR": 2462,
      "Ġvariety": 2463,
      "Ġwalk": 2464,
      "Ġlives": 2465,
      "Ġisn": 2466,
      "Ġhair": 2467,
      "ĠPart": 2468,
      "Ġprint": 2469,
      "Ġmarketing": 2470,
      "Ġconcern": 2471,
      "ĠRep": 2472,
      "izing": 2473,
      "ĠQu": 2474,
      "Ġ2015": 2475,
      "Ġ50": 2476,
      "Ġlonger": 2477,
      "son": 2478,
      "Ġhon": 2479,
      "istic": 2480,
      "Ġuser": 2481,
      "Ġkit": 2482,
      "Ġeasily": 2483,
      "apt": 2484,
      "ceed": 2485,
      "Ġstruct": 2486,
      "Ġworth": 2487,
      "Ġbott": 2488,
      "Ġpret": 2489,
      "Ġboard": 2490,
      "Ġdefin": 2491,
      "Ġstra": 2492,
      "Ġ2016": 2493,
      "Ġnice": 2494,
      "ĠBu": 2495,
      "ĠNational": 2496,
      "Ġupon": 2497,
      "Ġveh": 2498,
      "Ġactivities": 2499,
      "chen": 2500,
      "ĠNorth": 2501,
      "Ġrad": 2502,
      "IC": 2503,
      "ires": 2504,
      "rs": 2505,
      "Ġground": 2506,
      "Ġcannot": 2507,
      "ĠYork": 2508,
      "Ġsun": 2509,
      "Ġversion": 2510,
      "Ġmember": 2511,
      "Ġrunning": 2512,
      "oud": 2513,
      "ession": 2514,
      "Ġtotal": 2515,
      "aced": 2516,
      "Ġfall": 2517,
      "Ġlic": 2518,
      "Ġsafety": 2519,
      "based": 2520,
      "Ġsolution": 2521,
      "Ġrole": 2522,
      "Ġaccording": 2523,
      "Ġallows": 2524,
      "Ġtreatment": 2525,
      "Ġprivate": 2526,
      "Ġhol": 2527,
      "ĠWorld": 2528,
      "ĠEm": 2529,
      "aching": 2530,
      "itten": 2531,
      "ĠCenter": 2532,
      "vent": 2533,
      "Ġleave": 2534,
      "Ġmaintain": 2535,
      "Ġbehind": 2536,
      "ules": 2537,
      "Ġmodel": 2538,
      "gu": 2539,
      "Ġtarget": 2540,
      "Ġ--": 2541,
      "Ġcele": 2542,
      "Ġpretty": 2543,
      "Ġsens": 2544,
      "Ġrate": 2545,
      "Ġrespect": 2546,
      "ecut": 2547,
      "Ġinside": 2548,
      "Ġpaper": 2549,
      "Ġoriginal": 2550,
      "Ġlatest": 2551,
      "Ġlocated": 2552,
      "Ġtrue": 2553,
      "Ġprobably": 2554,
      "hold": 2555,
      "lin": 2556,
      "itor": 2557,
      "Ġgen": 2558,
      "used": 2559,
      "Ġstop": 2560,
      "Ġdeb": 2561,
      "umb": 2562,
      "ĠGerm": 2563,
      "ĠState": 2564,
      "Ġblog": 2565,
      "Ġestab": 2566,
      "Ġcouple": 2567,
      "Ġmix": 2568,
      "ĠJu": 2569,
      "Ġfeed": 2570,
      "Ġsimilar": 2571,
      "ED": 2572,
      "Ġexact": 2573,
      "Ġparts": 2574,
      "Ġofficial": 2575,
      "IS": 2576,
      "Ġcoun": 2577,
      "Ġgrowth": 2578,
      "Ġut": 2579,
      "Ġcode": 2580,
      "Ġitems": 2581,
      "Ġwriting": 2582,
      "era": 2583,
      "Ġdecision": 2584,
      "Ġneg": 2585,
      "Ġquickly": 2586,
      "Ġbal": 2587,
      "hern": 2588,
      "Ġbase": 2589,
      "Ġpolicy": 2590,
      "iam": 2591,
      "ĠCanad": 2592,
      "Ġtools": 2593,
      "Ġloss": 2594,
      "With": 2595,
      "Ġweeks": 2596,
      "Ġ2019": 2597,
      "ĠJohn": 2598,
      "urg": 2599,
      "ĠSome": 2600,
      "Ġlegal": 2601,
      "iring": 2602,
      "Ġclient": 2603,
      "Ġinfl": 2604,
      "Ġcomputer": 2605,
      "erc": 2606,
      "Ġproviding": 2607,
      "Ġtalk": 2608,
      "Ġpolit": 2609,
      "Ġgeneral": 2610,
      "Ġinternational": 2611,
      "Ġsummer": 2612,
      "18": 2613,
      "But": 2614,
      "Ġweight": 2615,
      "Ġworked": 2616,
      "Ġlocation": 2617,
      "Ġsix": 2618,
      "Ġfram": 2619,
      "Ġsuit": 2620,
      "akes": 2621,
      "Ġrecent": 2622,
      "AL": 2623,
      "Ġcook": 2624,
      "Ġoption": 2625,
      "ĠSec": 2626,
      "Ġmodern": 2627,
      "hib": 2628,
      "Ġcause": 2629,
      "Ġdeg": 2630,
      "Ġfootball": 2631,
      "aining": 2632,
      "Ġkids": 2633,
      "ĠJust": 2634,
      "Ch": 2635,
      "atory": 2636,
      "Ġfu": 2637,
      "Ġprior": 2638,
      "Ġmedical": 2639,
      "inks": 2640,
      "Ġsil": 2641,
      "ĠSw": 2642,
      "ĠReg": 2643,
      "Ġchalleng": 2644,
      "Ġobs": 2645,
      "Ġfile": 2646,
      "fered": 2647,
      "Ġindic": 2648,
      "Ġreceived": 2649,
      "ĠAmerica": 2650,
      "60": 2651,
      "EN": 2652,
      "Ġones": 2653,
      "Ġfinal": 2654,
      "istration": 2655,
      "Ġvia": 2656,
      "Ġanyone": 2657,
      "cil": 2658,
      "ìĿ": 2659,
      "Ġswe": 2660,
      "Ġmass": 2661,
      "ĠAg": 2662,
      "empt": 2663,
      "Ġclick": 2664,
      "Ġspeed": 2665,
      "Ġinsurance": 2666,
      "Ġrelated": 2667,
      "Ġequipment": 2668,
      "Ġtold": 2669,
      "And": 2670,
      "ĠMc": 2671,
      "Ġlevels": 2672,
      "Ġnetwork": 2673,
      "Ġpers": 2674,
      "Ġhighly": 2675,
      "Ġaverage": 2676,
      "ung": 2677,
      "Ġproduction": 2678,
      "reg": 2679,
      "Ġsense": 2680,
      "Ġeye": 2681,
      "Ġability": 2682,
      "ĠStates": 2683,
      "mon": 2684,
      "Ġfa": 2685,
      "Ġimmedi": 2686,
      "ublic": 2687,
      "Ġlooks": 2688,
      "Al": 2689,
      "pri": 2690,
      "idge": 2691,
      "ĠAir": 2692,
      "ĠBra": 2693,
      "Ġnecessary": 2694,
      "uary": 2695,
      "ening": 2696,
      "ooking": 2697,
      "ĠHigh": 2698,
      "Ġ2014": 2699,
      "pose": 2700,
      "ĠSat": 2701,
      "Ġclos": 2702,
      "Ġpatients": 2703,
      "Ġsites": 2704,
      "ole": 2705,
      "Ġple": 2706,
      "eter": 2707,
      "ĠPer": 2708,
      "Ġheld": 2709,
      "Ġseems": 2710,
      "ha": 2711,
      "vant": 2712,
      "Ġchance": 2713,
      "Ġexcellent": 2714,
      "AC": 2715,
      "ĠNow": 2716,
      "Ġcat": 2717,
      "Ġheav": 2718,
      "Ġremov": 2719,
      "ĠArt": 2720,
      "Ġbill": 2721,
      "Ġnorm": 2722,
      "ĠSm": 2723,
      "ached": 2724,
      "Ġmorning": 2725,
      "bor": 2726,
      "ĠBy": 2727,
      "ively": 2728,
      "Ġplans": 2729,
      "Ġteac": 2730,
      "itting": 2731,
      "Ġcosts": 2732,
      "Ġterms": 2733,
      "Ġcopy": 2734,
      "urb": 2735,
      "IT": 2736,
      "ana": 2737,
      "Ġdest": 2738,
      "Ġintrodu": 2739,
      "eal": 2740,
      "Ã©": 2741,
      "Ġfig": 2742,
      "icles": 2743,
      "oman": 2744,
      "ĠWill": 2745,
      "aby": 2746,
      "Ġincluded": 2747,
      "Ġarticle": 2748,
      "anguage": 2749,
      "Ġwood": 2750,
      "ĠBar": 2751,
      "aging": 2752,
      "Ġinde": 2753,
      "Ġfavorite": 2754,
      "Ġnational": 2755,
      "pper": 2756,
      "Ġtypes": 2757,
      "Ġgiving": 2758,
      "ĠPres": 2759,
      "Ġqual": 2760,
      "Ġprim": 2761,
      "Ġcourt": 2762,
      "Ġcollection": 2763,
      "Ġprograms": 2764,
      "Ġpurchase": 2765,
      "Ġwarm": 2766,
      "Ġdaily": 2767,
      "vey": 2768,
      "pril": 2769,
      "Ġwedding": 2770,
      "Ġinj": 2771,
      "roll": 2772,
      "Ġrequirements": 2773,
      "onse": 2774,
      "Ġfresh": 2775,
      "Ġlower": 2776,
      "Ġdeep": 2777,
      "sing": 2778,
      "ison": 2779,
      "ĠOct": 2780,
      "ĠInc": 2781,
      "ĠHealth": 2782,
      "airs": 2783,
      "Ġcand": 2784,
      "ences": 2785,
      "ĠHis": 2786,
      "13": 2787,
      "iter": 2788,
      "Ġlif": 2789,
      "ishing": 2790,
      "Ġcharacter": 2791,
      "Ġcell": 2792,
      "Ġarch": 2793,
      "Ġ[": 2794,
      "iles": 2795,
      "ĠDon": 2796,
      "Ġ40": 2797,
      "Ġblood": 2798,
      "Ġshows": 2799,
      "Ġleaders": 2800,
      "ming": 2801,
      "atform": 2802,
      "org": 2803,
      "Ġdom": 2804,
      "Ġsave": 2805,
      "ĠWhile": 2806,
      "Ġreading": 2807,
      "ysis": 2808,
      "isions": 2809,
      "irit": 2810,
      "aves": 2811,
      "Ġitself": 2812,
      "Ġencoura": 2813,
      "All": 2814,
      "ky": 2815,
      "ests": 2816,
      "Ġimplement": 2817,
      "fr": 2818,
      "nal": 2819,
      "Ġill": 2820,
      "Ġdat": 2821,
      "Ġwritten": 2822,
      "Ġdamage": 2823,
      "Ġimage": 2824,
      "Ġsource": 2825,
      "idential": 2826,
      "ties": 2827,
      "Ġsqu": 2828,
      "reng": 2829,
      "Ġsubject": 2830,
      "ze": 2831,
      "erve": 2832,
      "Ġlate": 2833,
      "Ġnothing": 2834,
      "Ġhelps": 2835,
      "Ġasked": 2836,
      "cription": 2837,
      "asons": 2838,
      "âĢĵ": 2839,
      "ĠWest": 2840,
      "ĠDep": 2841,
      "ĠGra": 2842,
      "ĠOff": 2843,
      "Ġinternet": 2844,
      "ĠBlack": 2845,
      "iol": 2846,
      "val": 2847,
      "Ġadmin": 2848,
      "Ġdecided": 2849,
      "14": 2850,
      "iet": 2851,
      "Ġmeeting": 2852,
      "Ġtit": 2853,
      "atives": 2854,
      "amb": 2855,
      "Ġresources": 2856,
      "MC": 2857,
      "ĠAng": 2858,
      "Ġthemselves": 2859,
      "ought": 2860,
      "ĠCounty": 2861,
      "Ġcondition": 2862,
      "apan": 2863,
      "ipe": 2864,
      "ĠJune": 2865,
      "Ġsche": 2866,
      "Ġdocument": 2867,
      "ker": 2868,
      "light": 2869,
      "itut": 2870,
      "ĠMarch": 2871,
      "Ġconsult": 2872,
      "__": 2873,
      "Ġrestaur": 2874,
      "cies": 2875,
      "Ġgoal": 2876,
      "Ġattack": 2877,
      "mission": 2878,
      "aries": 2879,
      "Ġgirl": 2880,
      "irth": 2881,
      "ĠFriday": 2882,
      "Ġfeature": 2883,
      "Ġx": 2884,
      "Ġhuge": 2885,
      "Ġsolutions": 2886,
      "ales": 2887,
      "arth": 2888,
      "Ġcareer": 2889,
      "Ġparents": 2890,
      "ĠAustral": 2891,
      "year": 2892,
      "Ġinnov": 2893,
      "Ġdri": 2894,
      "Ġappl": 2895,
      "Ġorganization": 2896,
      "ĠAfric": 2897,
      "Ġhands": 2898,
      "ĠGr": 2899,
      "//": 2900,
      "At": 2901,
      "atter": 2902,
      "Ġcra": 2903,
      "Ġorganiz": 2904,
      "AM": 2905,
      "dd": 2906,
      "ober": 2907,
      "arant": 2908,
      "igation": 2909,
      "ĠAssoci": 2910,
      "Ġanswer": 2911,
      "Ġsale": 2912,
      "Ġrent": 2913,
      "ĠHome": 2914,
      "Ġimm": 2915,
      "Ġpartners": 2916,
      "ension": 2917,
      "Ġenter": 2918,
      "Ġprotect": 2919,
      "edicated": 2920,
      "My": 2921,
      "OT": 2922,
      "right": 2923,
      "Ġmid": 2924,
      "Ġgives": 2925,
      "Ġround": 2926,
      "ĠNet": 2927,
      "Ġdisplay": 2928,
      "ugust": 2929,
      "ĠApril": 2930,
      "Ġremember": 2931,
      "Ġcomplex": 2932,
      "Ġfully": 2933,
      "just": 2934,
      "Ġaward": 2935,
      "Ġdescrib": 2936,
      "Ġrights": 2937,
      "Ġinvolved": 2938,
      "Ġmoment": 2939,
      "ĠPlease": 2940,
      "17": 2941,
      "erous": 2942,
      "Ġprices": 2943,
      "Ġextreme": 2944,
      "aign": 2945,
      "Ġtowards": 2946,
      "Ġdirectly": 2947,
      "ĠCor": 2948,
      "oogle": 2949,
      "Ġleading": 2950,
      "Ġdeliver": 2951,
      "ipping": 2952,
      "Ġcorrect": 2953,
      "nes": 2954,
      "Ġfill": 2955,
      "itely": 2956,
      "Ġcarry": 2957,
      "adem": 2958,
      "Ġroll": 2959,
      "Ġdraw": 2960,
      "Ġslow": 2961,
      "itation": 2962,
      "Ġmention": 2963,
      "Ġheat": 2964,
      "oph": 2965,
      "ĠRec": 2966,
      "ptember": 2967,
      "ressed": 2968,
      "Ġstrateg": 2969,
      "://": 2970,
      "ĠHouse": 2971,
      "Ġbenefits": 2972,
      "ĠCompany": 2973,
      "ades": 2974,
      "Ġsurg": 2975,
      "Ġadvant": 2976,
      "hood": 2977,
      "lim": 2978,
      "ese": 2979,
      "ĠBo": 2980,
      "oes": 2981,
      "Ġbud": 2982,
      "Ġexcept": 2983,
      "Ġexpected": 2984,
      "Ġstreng": 2985,
      "ĠEd": 2986,
      "agn": 2987,
      "ples": 2988,
      "fects": 2989,
      "Ġattention": 2990,
      "Ġphotos": 2991,
      "sc": 2992,
      "etic": 2993,
      "Ġsepar": 2994,
      "ondon": 2995,
      "Ġlimited": 2996,
      "Ġaware": 2997,
      "Ġcases": 2998,
      "âĢ¢": 2999,
      "ĠTw": 3000,
      "Ġconcept": 3001,
      "Ġtrad": 3002,
      "Ġcenter": 3003,
      "porate": 3004,
      "Ġpiece": 3005,
      "ĠJuly": 3006,
      "RE": 3007,
      "Ġball": 3008,
      "usiness": 3009,
      "ĠAut": 3010,
      "Ġdeath": 3011,
      "Ġsett": 3012,
      "Ġmachine": 3013,
      "16": 3014,
      "Ġ#": 3015,
      "onst": 3016,
      "ĠPa": 3017,
      "ĠPre": 3018,
      "Ġsection": 3019,
      "Ġpred": 3020,
      "Ġpositive": 3021,
      "Ġplaying": 3022,
      "Ġcreating": 3023,
      "ĠInternational": 3024,
      "ville": 3025,
      "Ġwish": 3026,
      "kend": 3027,
      "Ġplatform": 3028,
      "Ġgoes": 3029,
      "Ġgradu": 3030,
      "Ġfilm": 3031,
      "ried": 3032,
      "ĠOut": 3033,
      "Ġtrip": 3034,
      "Ġinteresting": 3035,
      "Ġpromot": 3036,
      "cast": 3037,
      "iation": 3038,
      "ĠDay": 3039,
      "elling": 3040,
      "Ġindividuals": 3041,
      "Ġmultiple": 3042,
      "Ġbath": 3043,
      "Ġmobile": 3044,
      "Ġthinking": 3045,
      "Ġtrust": 3046,
      "Ġmatch": 3047,
      "Ðµ": 3048,
      "Ġcam": 3049,
      "Ġbi": 3050,
      "earch": 3051,
      "Ġdise": 3052,
      "Ġwel": 3053,
      "Ġhous": 3054,
      "ĠOf": 3055,
      "Ġmyself": 3056,
      "Ġassess": 3057,
      "Ġfarm": 3058,
      "ĠSer": 3059,
      "ĠMr": 3060,
      "ags": 3061,
      "Ġtraditional": 3062,
      "Ġsuccessful": 3063,
      "Ġopportunities": 3064,
      "iddle": 3065,
      "ica": 3066,
      "Ġreach": 3067,
      "ĠPar": 3068,
      "Ġconsist": 3069,
      "Ġcelebr": 3070,
      "Ð¾": 3071,
      "Ġge": 3072,
      "ĠJapan": 3073,
      "Ġspot": 3074,
      "Ġsupply": 3075,
      "ooth": 3076,
      "wise": 3077,
      "enge": 3078,
      "Ġsurpr": 3079,
      "like": 3080,
      "mas": 3081,
      "Ġë": 3082,
      "Ġten": 3083,
      "idents": 3084,
      "chan": 3085,
      "Ġappropri": 3086,
      "Ġwonderful": 3087,
      "Ġhour": 3088,
      "Ġproced": 3089,
      "izes": 3090,
      "Ġlog": 3091,
      "âĢĿ.": 3092,
      "ĠVal": 3093,
      "Ġplayers": 3094,
      "Ġoffering": 3095,
      "Ġwrite": 3096,
      "bit": 3097,
      "hel": 3098,
      "Ġwal": 3099,
      "lear": 3100,
      "iding": 3101,
      "Ġminim": 3102,
      "Ġemb": 3103,
      "board": 3104,
      "Ġwait": 3105,
      "Ġessential": 3106,
      "Ġcash": 3107,
      "Ġpath": 3108,
      "arter": 3109,
      "Ġsend": 3110,
      "Ġentry": 3111,
      "Ġ198": 3112,
      "Ġinterested": 3113,
      "Ġtouch": 3114,
      "OU": 3115,
      "ses": 3116,
      "Ġaw": 3117,
      "Ġdep": 3118,
      "Ġcountries": 3119,
      "25": 3120,
      "Ġhit": 3121,
      "Ġaltern": 3122,
      "Ġsaw": 3123,
      "Ġstudent": 3124,
      "ĠJanuary": 3125,
      "su": 3126,
      "Ġfirm": 3127,
      "ĠPark": 3128,
      "ivity": 3129,
      "idered": 3130,
      "Ġdecor": 3131,
      "Ġinstead": 3132,
      "Af": 3133,
      "ares": 3134,
      "hest": 3135,
      "ĠThen": 3136,
      "ĠStud": 3137,
      "Ġprec": 3138,
      "Ġsometimes": 3139,
      "Ġexperienced": 3140,
      "Ġglobal": 3141,
      "wor": 3142,
      "Ġmount": 3143,
      "pped": 3144,
      "Ġnote": 3145,
      "aged": 3146,
      "Ġprevent": 3147,
      "Ġachieve": 3148,
      "iable": 3149,
      "Ġdiv": 3150,
      "Ġuses": 3151,
      "Ġ2013": 3152,
      "Ġfloor": 3153,
      "40": 3154,
      "Ġrelease": 3155,
      "Ġposted": 3156,
      "opping": 3157,
      "ĠFeb": 3158,
      "oke": 3159,
      "Ġfine": 3160,
      "iling": 3161,
      "ĠAb": 3162,
      "Ġsn": 3163,
      "itute": 3164,
      "uses": 3165,
      "Ġaffect": 3166,
      "Ġgrowing": 3167,
      "Ġsong": 3168,
      "ĠAct": 3169,
      "Ġtrain": 3170,
      "Ġattempt": 3171,
      "Ġwrong": 3172,
      "Ġtemper": 3173,
      "Ġguarant": 3174,
      "Ġplanning": 3175,
      "Ġobject": 3176,
      "Ġsleep": 3177,
      "aly": 3178,
      "ption": 3179,
      "Ġculture": 3180,
      "ester": 3181,
      "rate": 3182,
      "Ġemer": 3183,
      "Ġhear": 3184,
      "Ġpicture": 3185,
      "Ġfrequ": 3186,
      "Ġerr": 3187,
      "Ġcy": 3188,
      "Ġcert": 3189,
      "Ġlost": 3190,
      "Ġspend": 3191,
      "Ġmatt": 3192,
      "ĠLondon": 3193,
      "Ġcommer": 3194,
      "Ġretail": 3195,
      "Ġcampaign": 3196,
      "Ġapart": 3197,
      "ĠÂ£": 3198,
      "Ġsold": 3199,
      "iff": 3200,
      "ecause": 3201,
      "Ġpurpose": 3202,
      "Ġphoto": 3203,
      "Ġreduce": 3204,
      "ĠEnglish": 3205,
      "na": 3206,
      "Ġgreen": 3207,
      "ibly": 3208,
      "ological": 3209,
      "Ġattract": 3210,
      "Ġpattern": 3211,
      "Ġphotograph": 3212,
      "Ġcompletely": 3213,
      "ule": 3214,
      "Ġver": 3215,
      "ulations": 3216,
      "Ġowners": 3217,
      "Ġfix": 3218,
      "Ġfelt": 3219,
      "Ġhor": 3220,
      "Ġlab": 3221,
      "Ġlanguage": 3222,
      "urday": 3223,
      "ĠEl": 3224,
      "Ġload": 3225,
      "Ġacqu": 3226,
      "ĠTH": 3227,
      "ĠCoun": 3228,
      "amed": 3229,
      "Ġcondu": 3230,
      "Ġtraffic": 3231,
      "Ġoverall": 3232,
      "Ġinteract": 3233,
      "Ġprevious": 3234,
      "ospital": 3235,
      "Be": 3236,
      "wood": 3237,
      "ellow": 3238,
      "Ġpaid": 3239,
      "Ġreplace": 3240,
      "sp": 3241,
      "sy": 3242,
      "Ġsubs": 3243,
      "Ġimages": 3244,
      "Ġestate": 3245,
      "Ġconstruction": 3246,
      "Ġeyes": 3247,
      "Re": 3248,
      "Ġintegr": 3249,
      "Ġdemand": 3250,
      "ĠOctober": 3251,
      "ka": 3252,
      "ude": 3253,
      "Ġloved": 3254,
      "orage": 3255,
      "artment": 3256,
      "Ġshall": 3257,
      "Ġgets": 3258,
      "Ġconsidered": 3259,
      "Ġsubst": 3260,
      "Ġdigital": 3261,
      "Ġsurgery": 3262,
      "gram": 3263,
      "Ġdry": 3264,
      "Ġnotice": 3265,
      "Ġcommit": 3266,
      "Ġdifference": 3267,
      "Ġavoid": 3268,
      "ST": 3269,
      "band": 3270,
      "yond": 3271,
      "Ġmark": 3272,
      "ara": 3273,
      "Ġdark": 3274,
      "Ġobtain": 3275,
      "vis": 3276,
      "reci": 3277,
      "Ġdress": 3278,
      "pects": 3279,
      "rench": 3280,
      "rought": 3281,
      "Ġnature": 3282,
      "One": 3283,
      "Ġoffered": 3284,
      "arden": 3285,
      "Ġsmart": 3286,
      "Ġguide": 3287,
      "Ġtechnical": 3288,
      "Ġprofession": 3289,
      "Ġapplications": 3290,
      "Ġunderstanding": 3291,
      "Ġanalysis": 3292,
      "Ġcirc": 3293,
      "Ġble": 3294,
      "ĠCons": 3295,
      "ĠFin": 3296,
      "Ġappoint": 3297,
      "Ġinitial": 3298,
      "Ġdefinitely": 3299,
      "Ġdrop": 3300,
      "Ġdream": 3301,
      "enty": 3302,
      "ĠPat": 3303,
      "ĠHar": 3304,
      "antly": 3305,
      "duc": 3306,
      "Ġmattress": 3307,
      "dom": 3308,
      "gar": 3309,
      "Ġfair": 3310,
      "ĠBrit": 3311,
      "Ġexerc": 3312,
      "Ġplant": 3313,
      "ĠKing": 3314,
      "iction": 3315,
      "Ġhealthy": 3316,
      "Ġglass": 3317,
      "Ġmoving": 3318,
      "Ġcas": 3319,
      "Ġfight": 3320,
      "Ġdru": 3321,
      "ama": 3322,
      "Ġcomment": 3323,
      "Ġplaces": 3324,
      "ashing": 3325,
      "ivery": 3326,
      "orge": 3327,
      "oming": 3328,
      "Ġearn": 3329,
      "Ġdog": 3330,
      "aches": 3331,
      "Ġdeveloped": 3332,
      "Ġkitchen": 3333,
      "Ġexactly": 3334,
      "Ġviol": 3335,
      "Ġadult": 3336,
      "ĠHere": 3337,
      "ĠAlso": 3338,
      "Ġpictures": 3339,
      "ek": 3340,
      "ĠSund": 3341,
      "ĠDirect": 3342,
      "Ġ22": 3343,
      "Ġadvice": 3344,
      "\".": 3345,
      "mat": 3346,
      "Ġing": 3347,
      "anc": 3348,
      "Ġgar": 3349,
      "Ġ21": 3350,
      "Ġadvert": 3351,
      "zy": 3352,
      "Ġaim": 3353,
      "ĠBusiness": 3354,
      "Ġrates": 3355,
      "ĠFrom": 3356,
      "ipped": 3357,
      "Ġemployees": 3358,
      "Ġeat": 3359,
      "cember": 3360,
      "Ġheard": 3361,
      "ĠUp": 3362,
      "rences": 3363,
      "Ġsuppl": 3364,
      "Ġmedic": 3365,
      "Ġbasic": 3366,
      "Ġcommercial": 3367,
      "gen": 3368,
      "Ġwall": 3369,
      "Ġdin": 3370,
      "ĠGl": 3371,
      "lock": 3372,
      "ruary": 3373,
      "Ġmanufacture": 3374,
      "ny": 3375,
      "word": 3376,
      "ÂŃ": 3377,
      "inary": 3378,
      "ĠCour": 3379,
      "Ġneigh": 3380,
      "Ġenh": 3381,
      "Ġweekend": 3382,
      "Ġgroups": 3383,
      "After": 3384,
      "iety": 3385,
      "ĠAc": 3386,
      "Ġjud": 3387,
      "Ġrelax": 3388,
      "Ġdevices": 3389,
      "Ġbaby": 3390,
      "icious": 3391,
      "Ġformer": 3392,
      "sequ": 3393,
      "Ġord": 3394,
      "door": 3395,
      "het": 3396,
      "Ġsus": 3397,
      "Ġdepart": 3398,
      "Ġbecame": 3399,
      "ĠTechn": 3400,
      "Ġconnect": 3401,
      "Ġcross": 3402,
      "Ġdoor": 3403,
      "Ġsteel": 3404,
      "Ġfamilies": 3405,
      "ira": 3406,
      "Ġfat": 3407,
      "Ġreve": 3408,
      "Ġbegan": 3409,
      "Ġattend": 3410,
      "ague": 3411,
      "Ġprinc": 3412,
      "Ġpublished": 3413,
      "ronic": 3414,
      "Ġassociated": 3415,
      "ĠSaturday": 3416,
      "Ġep": 3417,
      "Ġstarting": 3418,
      "ĠInternet": 3419,
      "ustr": 3420,
      "Ġspent": 3421,
      "Ġprem": 3422,
      "Ġblock": 3423,
      "Ġpressure": 3424,
      "Ġeffort": 3425,
      "inated": 3426,
      "urning": 3427,
      "ĠMon": 3428,
      "ĠJes": 3429,
      "place": 3430,
      "Ġsteps": 3431,
      "haps": 3432,
      "ned": 3433,
      "Ġscreen": 3434,
      "Ġafford": 3435,
      "Ġregion": 3436,
      "Ġappropriate": 3437,
      "70": 3438,
      "pre": 3439,
      "Ġbirth": 3440,
      "ĠMore": 3441,
      "ĠMost": 3442,
      "ĠWind": 3443,
      "Ġinvestment": 3444,
      "Ġregarding": 3445,
      "Com": 3446,
      "EC": 3447,
      "Ġult": 3448,
      "Ġwar": 3449,
      "ĠGoogle": 3450,
      "ube": 3451,
      "ĠSeptember": 3452,
      "Ġbudget": 3453,
      "ĠEvery": 3454,
      "Ġ2012": 3455,
      "ĠCommun": 3456,
      "Ġaff": 3457,
      "fee": 3458,
      "Ġcollege": 3459,
      "Ġguid": 3460,
      "Ġdevice": 3461,
      "Ġanaly": 3462,
      "pite": 3463,
      "Ġcateg": 3464,
      "Ġcream": 3465,
      "Ġresponse": 3466,
      "Ġjourney": 3467,
      "reed": 3468,
      "ancy": 3469,
      "urt": 3470,
      "ĠRed": 3471,
      "ĠEduc": 3472,
      "uclear": 3473,
      "Ġfab": 3474,
      "Ġhotel": 3475,
      "rapy": 3476,
      "Ġimmediately": 3477,
      "Ġexecut": 3478,
      "ĠDesign": 3479,
      "ened": 3480,
      "alt": 3481,
      "Ġweather": 3482,
      "ĠBro": 3483,
      "Ġactive": 3484,
      "Ġlots": 3485,
      "Ġtruly": 3486,
      "ĠFebruary": 3487,
      "Ġhomes": 3488,
      "change": 3489,
      "ĠGet": 3490,
      "Ġknew": 3491,
      "Ġuseful": 3492,
      "Ġflav": 3493,
      "Ġfeeling": 3494,
      "Ġbasis": 3495,
      "Ġhistor": 3496,
      "Ġsatis": 3497,
      "more": 3498,
      "Ġstuff": 3499,
      "Ġcontain": 3500,
      "Ġbehav": 3501,
      "pendent": 3502,
      "oms": 3503,
      "olic": 3504,
      "ĠFree": 3505,
      "Ġgoals": 3506,
      "Ġreleased": 3507,
      "ĠCalif": 3508,
      "ĠSan": 3509,
      "Ġplayer": 3510,
      "Ġeasier": 3511,
      "ĠDecember": 3512,
      "Ġpowerful": 3513,
      "Ġcertainly": 3514,
      "ij": 3515,
      "mod": 3516,
      "isc": 3517,
      "ĠInt": 3518,
      "Ġ23": 3519,
      "ĠGroup": 3520,
      "That": 3521,
      "ovember": 3522,
      "Ġbusinesses": 3523,
      "tenance": 3524,
      "Ġsituation": 3525,
      "Ġcapt": 3526,
      "Ġtask": 3527,
      "Ġresponsible": 3528,
      "--": 3529,
      "Ġsurv": 3530,
      "Ġassign": 3531,
      "bon": 3532,
      "Ġsav": 3533,
      "arily": 3534,
      "Ġbroad": 3535,
      "Ġexisting": 3536,
      "Ġextremely": 3537,
      "Cl": 3538,
      "PS": 3539,
      "oices": 3540,
      "rast": 3541,
      "set": 3542,
      "Ġrev": 3543,
      "ores": 3544,
      "Ġdepe": 3545,
      "Ġshop": 3546,
      "Ġcharge": 3547,
      "Ġpolitical": 3548,
      "Ġefficient": 3549,
      "Ġmaxim": 3550,
      "Ġcontribut": 3551,
      "Ġplayed": 3552,
      "Ġincreasing": 3553,
      "Ġmother": 3554,
      "ĠDav": 3555,
      "ĠLet": 3556,
      "Ġeval": 3557,
      "Ġproduce": 3558,
      "Ġannual": 3559,
      "Ġreasons": 3560,
      "Ġgold": 3561,
      "ĠAugust": 3562,
      "Ġwasn": 3563,
      "ĠLa": 3564,
      "ĠChina": 3565,
      "ĠDevelop": 3566,
      "Ġlargest": 3567,
      "ĠIsland": 3568,
      "Ġactivity": 3569,
      "ĠDepartment": 3570,
      "ĠSunday": 3571,
      "mitted": 3572,
      "enior": 3573,
      "Ġadjust": 3574,
      "Ġbackground": 3575,
      "Ġincreased": 3576,
      "Ġdistribut": 3577,
      "Ġcommunication": 3578,
      "Ġdouble": 3579,
      "Sh": 3580,
      "uth": 3581,
      "ĠMond": 3582,
      "Ġsoci": 3583,
      "Ġideal": 3584,
      "ĠSystem": 3585,
      "Ġorganizations": 3586,
      "ĠDec": 3587,
      "istics": 3588,
      "ĠRuss": 3589,
      "oday": 3590,
      "Ġinstruct": 3591,
      "Ġserve": 3592,
      "Ġbeginning": 3593,
      "Ġearl": 3594,
      "Ġnearly": 3595,
      "ĠHer": 3596,
      "Ġhelping": 3597,
      "hens": 3598,
      "olute": 3599,
      "Ġallowed": 3600,
      "ornia": 3601,
      "ĠSupp": 3602,
      "Ġidentify": 3603,
      "Ġmessage": 3604,
      "Ġcomfortable": 3605,
      "OS": 3606,
      "Ġ28": 3607,
      "Ġadvanced": 3608,
      "Ġschools": 3609,
      "care": 3610,
      "Ġsust": 3611,
      "Ġimag": 3612,
      "Ġrace": 3613,
      "Ġsurround": 3614,
      "Ġsurface": 3615,
      "200": 3616,
      "ulated": 3617,
      "key": 3618,
      "Ġdegree": 3619,
      "Ġpen": 3620,
      "Ġpool": 3621,
      "ĠSim": 3622,
      "ĠAcc": 3623,
      "Ġconvers": 3624,
      "ressive": 3625,
      "ength": 3626,
      "ĠJesus": 3627,
      "oly": 3628,
      "anch": 3629,
      "ida": 3630,
      "odes": 3631,
      "Ġtried": 3632,
      "Ġcold": 3633,
      "Ġteams": 3634,
      "Ġprotection": 3635,
      "Ġparticularly": 3636,
      "rel": 3637,
      "ĠGreat": 3638,
      "Ġfinally": 3639,
      "Ġmeaning": 3640,
      "house": 3641,
      "add": 3642,
      "term": 3643,
      "ously": 3644,
      "force": 3645,
      "Ġappreci": 3646,
      "ashion": 3647,
      "Ġjoin": 3648,
      "aught": 3649,
      "ĠPresident": 3650,
      "Do": 3651,
      "Ex": 3652,
      "uk": 3653,
      "Ġhelped": 3654,
      "Ġexperts": 3655,
      "Ġprovider": 3656,
      "Ġbenefit": 3657,
      "Ġstructure": 3658,
      "Ġinflu": 3659,
      "wide": 3660,
      "oul": 3661,
      "Ġhtt": 3662,
      "ĠEven": 3663,
      "ĠThanks": 3664,
      "Ġdisp": 3665,
      "Ġ2011": 3666,
      "Ġinterview": 3667,
      "EO": 3668,
      "aks": 3669,
      "ault": 3670,
      "Ġpet": 3671,
      "Ġhop": 3672,
      "Ġled": 3673,
      "Ġnation": 3674,
      "erved": 3675,
      "Ġsecure": 3676,
      "ĠProf": 3677,
      "ĠProgram": 3678,
      "attle": 3679,
      "ĠAssociation": 3680,
      "Ġbrought": 3681,
      "Ġexhib": 3682,
      "Ġ26": 3683,
      "Ġpartner": 3684,
      "Ġpayment": 3685,
      "Ġvehicle": 3686,
      "ĠCalifornia": 3687,
      "Ð°": 3688,
      "Ġbank": 3689,
      "Ġthreat": 3690,
      "Ġgave": 3691,
      "ĠGold": 3692,
      "ĠNovember": 3693,
      "tended": 3694,
      "Ġcompon": 3695,
      "Ġchallenge": 3696,
      "iar": 3697,
      "Ġ:": 3698,
      "Ġpages": 3699,
      "olf": 3700,
      "Ġmaybe": 3701,
      "coming": 3702,
      "Ġletter": 3703,
      "ĠCollege": 3704,
      "ĠService": 3705,
      "Ġbrow": 3706,
      "ancing": 3707,
      "Ġdoll": 3708,
      "Ġbeyond": 3709,
      "Ġonto": 3710,
      "Ġspirit": 3711,
      "Ġ2010": 3712,
      "icing": 3713,
      "Ġlines": 3714,
      "Ġnut": 3715,
      "Ġstorage": 3716,
      "Ġshared": 3717,
      "Ġtele": 3718,
      "Ġunit": 3719,
      "Ġ60": 3720,
      "Ġtransport": 3721,
      "Ġpatient": 3722,
      "Ġdy": 3723,
      "ĠTV": 3724,
      "Ġstates": 3725,
      "Ġshower": 3726,
      "These": 3727,
      "Ġaccur": 3728,
      "Ġgraph": 3729,
      "ĠTrump": 3730,
      "ĠMonday": 3731,
      "SC": 3732,
      "Ġtim": 3733,
      "Ġsession": 3734,
      "Ġbreat": 3735,
      "Ġdedicated": 3736,
      "Ġgas": 3737,
      "Ġoccas": 3738,
      "ham": 3739,
      "ari": 3740,
      "Ġconven": 3741,
      "Ġvict": 3742,
      "Ġfinish": 3743,
      "Ġchallenges": 3744,
      "ID": 3745,
      "ĠClass": 3746,
      "Ġstraight": 3747,
      "erg": 3748,
      "ederal": 3749,
      "Ġfru": 3750,
      "Ġvac": 3751,
      "Ġrules": 3752,
      "ocol": 3753,
      "Ġrepair": 3754,
      "Ġhighest": 3755,
      "Ġcandid": 3756,
      "ym": 3757,
      "icks": 3758,
      "Ġstru": 3759,
      "ager": 3760,
      "Ġchem": 3761,
      "Ġreports": 3762,
      "ĠEuropean": 3763,
      "Ġtrou": 3764,
      "Ġcards": 3765,
      "Ġthous": 3766,
      "rol": 3767,
      "Ġstories": 3768,
      "aint": 3769,
      "Ġkn": 3770,
      "formation": 3771,
      "Ġtherefore": 3772,
      "Ġcove": 3773,
      "Ġserved": 3774,
      "Ġphysical": 3775,
      "99": 3776,
      "IL": 3777,
      "PA": 3778,
      "Ġice": 3779,
      "Ġflex": 3780,
      "Ġund": 3781,
      "Ġblue": 3782,
      "Ġbottom": 3783,
      "EL": 3784,
      "Ġcreative": 3785,
      "ING": 3786,
      "ĠServices": 3787,
      "Ġsweet": 3788,
      "PR": 3789,
      "aled": 3790,
      "asc": 3791,
      "iend": 3792,
      "atively": 3793,
      "Ġoptim": 3794,
      "Ġcritical": 3795,
      "off": 3796,
      "Ġcit": 3797,
      "iced": 3798,
      "ĠAre": 3799,
      "itect": 3800,
      "Ġevidence": 3801,
      "Ġnumbers": 3802,
      "Ġoccur": 3803,
      "ris": 3804,
      "atically": 3805,
      "Ġband": 3806,
      "Ġalthough": 3807,
      "ooks": 3808,
      "ategy": 3809,
      "ĠFrench": 3810,
      "Ġprefer": 3811,
      "Ġstrategy": 3812,
      "Ġtransfer": 3813,
      "Ġreported": 3814,
      "Ġdemonst": 3815,
      "ĠChristmas": 3816,
      "Ġdisease": 3817,
      "Ġboy": 3818,
      "Ġdefe": 3819,
      "Ġgreater": 3820,
      "Ġcars": 3821,
      "box": 3822,
      "aughter": 3823,
      "Ġstrength": 3824,
      "No": 3825,
      "hol": 3826,
      "ils": 3827,
      "Ġgift": 3828,
      "Ġbeg": 3829,
      "istry": 3830,
      "Ġmechan": 3831,
      "Ph": 3832,
      "Ġ...": 3833,
      "ĠSch": 3834,
      "ĠMus": 3835,
      "pping": 3836,
      "que": 3837,
      "Ġwants": 3838,
      "undred": 3839,
      "Ġopin": 3840,
      "Ġdelivery": 3841,
      "Ġchanged": 3842,
      "Ġclaims": 3843,
      "down": 3844,
      "ef": 3845,
      "pen": 3846,
      "Ġstage": 3847,
      "acity": 3848,
      "ĠJe": 3849,
      "Ġtrade": 3850,
      "Ġlarger": 3851,
      "Ġsaying": 3852,
      "Ġcab": 3853,
      "Ġbow": 3854,
      "ĠWell": 3855,
      "Ġfactors": 3856,
      "Ġtesting": 3857,
      "Ġconnection": 3858,
      "ĠEducation": 3859,
      "80": 3860,
      "aper": 3861,
      "ixt": 3862,
      "arc": 3863,
      "Ġdire": 3864,
      "Ġprop": 3865,
      "ĠMount": 3866,
      "Ġselection": 3867,
      "Ġsetting": 3868,
      "Ġwine": 3869,
      "Ġserver": 3870,
      "porary": 3871,
      "body": 3872,
      "ĠSa": 3873,
      "ĠBest": 3874,
      "ĠBook": 3875,
      "Ġmodels": 3876,
      "Ġturned": 3877,
      "Ġupdate": 3878,
      "Ġcollabor": 3879,
      "Pro": 3880,
      "¿½": 3881,
      "ï¿½": 3882,
      "Ġahead": 3883,
      "Ġpush": 3884,
      "Ġli": 3885,
      "Ġplus": 3886,
      "Ġspread": 3887,
      "Ġthank": 3888,
      "iques": 3889,
      "Ġrespond": 3890,
      "Ġdetermine": 3891,
      "oe": 3892,
      "Ġ+": 3893,
      "Ġmission": 3894,
      "Ġdead": 3895,
      "Ġartist": 3896,
      "Ġbrain": 3897,
      "bu": 3898,
      "aling": 3899,
      "Ġlack": 3900,
      "Ġsharing": 3901,
      "Ġexperiences": 3902,
      "Ġabsolute": 3903,
      "ĠCanada": 3904,
      "'d": 3905,
      "vest": 3906,
      "ĠHol": 3907,
      "ĠFace": 3908,
      "dule": 3909,
      "ĠSee": 3910,
      "Ġeffects": 3911,
      "Ġannounced": 3912,
      "Ġnormal": 3913,
      "ĠCouncil": 3914,
      "22": 3915,
      "SS": 3916,
      "ser": 3917,
      "Ġbutton": 3918,
      "Ġremind": 3919,
      "venue": 3920,
      "Ġpolice": 3921,
      "Ġgrand": 3922,
      "Ġproperties": 3923,
      "illing": 3924,
      "ĠMany": 3925,
      "Ġadop": 3926,
      "Ġincor": 3927,
      "Ġguests": 3928,
      "Ġfinished": 3929,
      "Ġserious": 3930,
      "ĠIndian": 3931,
      "ĠOnce": 3932,
      "ET": 3933,
      "Ġcraft": 3934,
      "Ġfurn": 3935,
      "illa": 3936,
      "ĠPal": 3937,
      "atever": 3938,
      "ĠDel": 3939,
      "ĠFirst": 3940,
      "Ġclub": 3941,
      "Ġcloud": 3942,
      "othing": 3943,
      "Ġcompleted": 3944,
      "Ġcontinu": 3945,
      "Ġmoved": 3946,
      "Ġpieces": 3947,
      "Ġeconomic": 3948,
      "ibrary": 3949,
      "Ġadvantage": 3950,
      "Ġingred": 3951,
      "Ġcovered": 3952,
      "65": 3953,
      "Please": 3954,
      "Ġ|": 3955,
      "Ġbatter": 3956,
      "ams": 3957,
      "Ġrob": 3958,
      "ĠSuper": 3959,
      "grade": 3960,
      "Ġearlier": 3961,
      "mar": 3962,
      "ayer": 3963,
      "ĠAN": 3964,
      "Ġstress": 3965,
      "ĠMor": 3966,
      "unt": 3967,
      "ĠGener": 3968,
      "Ġcontains": 3969,
      "Ġowner": 3970,
      "Ġexpand": 3971,
      "Ġbelie": 3972,
      "Ġpoor": 3973,
      "35": 3974,
      "Ġfear": 3975,
      "ani": 3976,
      "Ġreact": 3977,
      "ctors": 3978,
      "Ġshown": 3979,
      "Ġagreement": 3980,
      "Ġtitle": 3981,
      "Ġfather": 3982,
      "Ġmis": 3983,
      "ĠSince": 3984,
      "see": 3985,
      "unte": 3986,
      "Ġwear": 3987,
      "ĠWar": 3988,
      "Ġmovie": 3989,
      "Ġiniti": 3990,
      "hether": 3991,
      "lying": 3992,
      "Ġchurch": 3993,
      "Ġrelevant": 3994,
      "Ġtalking": 3995,
      "Ġsty": 3996,
      "ĠBel": 3997,
      "Ġconference": 3998,
      "useum": 3999,
      "Ġprepared": 4000,
      "ĠCourt": 4001,
      "hy": 4002,
      "iest": 4003,
      "Ġtips": 4004,
      "Ġfra": 4005,
      "Ġfant": 4006,
      "Ġitem": 4007,
      "Ġremain": 4008,
      "Ġvalid": 4009,
      "Ġmethods": 4010,
      "iant": 4011,
      "ald": 4012,
      "leg": 4013,
      "rote": 4014,
      "cel": 4015,
      "Ġcomments": 4016,
      "istered": 4017,
      "Ġclin": 4018,
      "Ġkept": 4019,
      "US": 4020,
      "Ġê": 4021,
      "orrow": 4022,
      "Ġharm": 4023,
      "Ġnuclear": 4024,
      "Ġgain": 4025,
      "ett": 4026,
      "usband": 4027,
      "Ġvirt": 4028,
      "Ġ27": 4029,
      "Ġbeauty": 4030,
      "Res": 4031,
      "end": 4032,
      "Ġpros": 4033,
      "ĠOther": 4034,
      "Ġcompl": 4035,
      "Ġemot": 4036,
      "ologies": 4037,
      "Ġgenerally": 4038,
      "Ġjobs": 4039,
      "Ġcompetition": 4040,
      "ocolate": 4041,
      "OW": 4042,
      "ran": 4043,
      "Ġpow": 4044,
      "ĠHall": 4045,
      "osure": 4046,
      "Ġmanage": 4047,
      "Ġthanks": 4048,
      "Ġsym": 4049,
      "Ġentertain": 4050,
      "Ġcheap": 4051,
      "Ġdeveloping": 4052,
      "Ġlisted": 4053,
      "Ġfollowed": 4054,
      "Ġwinter": 4055,
      "ĠManagement": 4056,
      "45": 4057,
      "ĠMich": 4058,
      "ĠWord": 4059,
      "Ġcof": 4060,
      "Ġutil": 4061,
      "Ġson": 4062,
      "estern": 4063,
      "ĠSpr": 4064,
      "Ġshopping": 4065,
      "Ġfeet": 4066,
      "ĠStreet": 4067,
      "Ġmaintenance": 4068,
      "itary": 4069,
      "ĠMarket": 4070,
      "ĠEach": 4071,
      "Ġfee": 4072,
      "Ġcapital": 4073,
      "ĠTrans": 4074,
      "Ġmeasure": 4075,
      "ĠAustralia": 4076,
      "free": 4077,
      "orthern": 4078,
      "Ġplants": 4079,
      "ĠAny": 4080,
      "Ġpassion": 4081,
      "Ġcontroll": 4082,
      "Ġstores": 4083,
      "Ġfriendly": 4084,
      "ĠGermany": 4085,
      "sych": 4086,
      "AD": 4087,
      "icking": 4088,
      "ĠCle": 4089,
      "ĠWashing": 4090,
      "Ġcompre": 4091,
      "Ġparties": 4092,
      "Ġfinding": 4093,
      "Ġpopulation": 4094,
      "Ġdoub": 4095,
      "Ġprimary": 4096,
      "Is": 4097,
      "iny": 4098,
      "Ġbur": 4099,
      "inger": 4100,
      "Ġcorporate": 4101,
      "Ġoperation": 4102,
      "iency": 4103,
      "des": 4104,
      "ico": 4105,
      "ili": 4106,
      "ĠIN": 4107,
      "iment": 4108,
      "istr": 4109,
      "agram": 4110,
      "Ġinstitut": 4111,
      "Ġstandards": 4112,
      "za": 4113,
      "Ġcup": 4114,
      "Ġthr": 4115,
      "Ġstreet": 4116,
      "Ġfacilities": 4117,
      "Ġprofessionals": 4118,
      "88": 4119,
      "OL": 4120,
      "col": 4121,
      "rig": 4122,
      "Ġaid": 4123,
      "esome": 4124,
      "encies": 4125,
      "Ġgone": 4126,
      "Ġforce": 4127,
      "Ġplaced": 4128,
      "Ġscient": 4129,
      "Ġdriving": 4130,
      "Ġexplore": 4131,
      "Ġmovement": 4132,
      "Ġholiday": 4133,
      "24": 4134,
      "pm": 4135,
      "Ġcry": 4136,
      "ette": 4137,
      "Ġaren": 4138,
      "ĠLaw": 4139,
      "Ġcolors": 4140,
      "Ġadding": 4141,
      "hips": 4142,
      "Ġmiles": 4143,
      "Ġefforts": 4144,
      "Now": 4145,
      "Ġbought": 4146,
      "Ġlength": 4147,
      "ĠIT": 4148,
      "ĠChurch": 4149,
      "Ġdecisions": 4150,
      "ĠWhite": 4151,
      "Ġdiscount": 4152,
      "Ġinternal": 4153,
      "Ġlearned": 4154,
      "ĠUSA": 4155,
      "ĠPhil": 4156,
      "Ġtickets": 4157,
      "Ad": 4158,
      "field": 4159,
      "Ġluck": 4160,
      "Ġliter": 4161,
      "Ġcompared": 4162,
      "ĠInter": 4163,
      "Ġadvance": 4164,
      "ĠNews": 4165,
      "Ġpractices": 4166,
      "Ġmagn": 4167,
      "Ġwelcome": 4168,
      "ĠDevelopment": 4169,
      "inate": 4170,
      "Ġcru": 4171,
      "icip": 4172,
      "Ġhundred": 4173,
      "ĠMal": 4174,
      "Ġvot": 4175,
      "Ġroof": 4176,
      "pective": 4177,
      "Ġprogress": 4178,
      "Ġslight": 4179,
      "mark": 4180,
      "erry": 4181,
      "enture": 4182,
      "umn": 4183,
      "ĠEast": 4184,
      "tee": 4185,
      "Ġrequires": 4186,
      "ĠWhy": 4187,
      "Ġleader": 4188,
      "standing": 4189,
      "Ġoperations": 4190,
      "ortunately": 4191,
      "Ġelectric": 4192,
      "Ġreviews": 4193,
      "ursday": 4194,
      "Ġsort": 4195,
      "Ġsand": 4196,
      "Ġmicro": 4197,
      "Ġhusband": 4198,
      "phone": 4199,
      "Ġstudies": 4200,
      "Ġsolid": 4201,
      "ĠFlor": 4202,
      "Ġbalance": 4203,
      "ey": 4204,
      "Â®": 4205,
      "iture": 4206,
      "Ġdang": 4207,
      "Ġlinks": 4208,
      "ulate": 4209,
      "unk": 4210,
      "ĠWater": 4211,
      "ĠGood": 4212,
      "Ġincred": 4213,
      "Ġcourses": 4214,
      "!!!": 4215,
      "Ġassistance": 4216,
      "Ġestablished": 4217,
      "Ġdirection": 4218,
      "ios": 4219,
      "íķ": 4220,
      "inally": 4221,
      "Ġnamed": 4222,
      "ĠMa": 4223,
      "abilities": 4224,
      "Ġshipping": 4225,
      "ĠGreen": 4226,
      "Ġhelpful": 4227,
      "Ġhimself": 4228,
      "Ġopening": 4229,
      "Ġviews": 4230,
      "Ġheavy": 4231,
      "Ġexercise": 4232,
      "Ġsources": 4233,
      "ado": 4234,
      "ĠRob": 4235,
      "allery": 4236,
      "roud": 4237,
      "ĠYear": 4238,
      "Ġdisapp": 4239,
      "Ġstatus": 4240,
      "Ġfaith": 4241,
      "ĠFacebook": 4242,
      "AP": 4243,
      "ĠWin": 4244,
      "Ġvill": 4245,
      "ivil": 4246,
      "Ġtheme": 4247,
      "âĢĿ,": 4248,
      "ĠVis": 4249,
      "ounds": 4250,
      "Ġcolour": 4251,
      "Ġsets": 4252,
      "Ġcapacity": 4253,
      "Ġrecords": 4254,
      "Ġanimals": 4255,
      "overy": 4256,
      "tra": 4257,
      "arge": 4258,
      "ĠMac": 4259,
      "ĠHot": 4260,
      "ander": 4261,
      "Ġquarter": 4262,
      "Ġolder": 4263,
      "ĠChristian": 4264,
      "Ġfocused": 4265,
      "Ġsounds": 4266,
      "Ġcoffee": 4267,
      "75": 4268,
      "vin": 4269,
      "itter": 4270,
      "Ġowned": 4271,
      "Ġartists": 4272,
      "Ġbuying": 4273,
      "Ġroute": 4274,
      "ĠPaul": 4275,
      "Ġtemperature": 4276,
      "Ġsustain": 4277,
      "ael": 4278,
      "Ġer": 4279,
      "Ġur": 4280,
      "Ġwoman": 4281,
      "ĠCare": 4282,
      "ĠRem": 4283,
      "anging": 4284,
      "Ġlooked": 4285,
      "Ġpaint": 4286,
      "bum": 4287,
      "gl": 4288,
      "ishes": 4289,
      "Ġvision": 4290,
      "Ġfiles": 4291,
      "ĠInstitute": 4292,
      "Ġdinner": 4293,
      "Ġbul": 4294,
      "Ġbag": 4295,
      "Ġbeach": 4296,
      "Ġforget": 4297,
      "Ġrich": 4298,
      "Ġshirt": 4299,
      "ĠWeb": 4300,
      "Ġflat": 4301,
      "ona": 4302,
      "Ġfan": 4303,
      "estival": 4304,
      "aker": 4305,
      "Ġagency": 4306,
      "Ġremove": 4307,
      "Ġvisual": 4308,
      "Ġdiscover": 4309,
      "Ġcommunities": 4310,
      "Ġsitu": 4311,
      "rim": 4312,
      "itness": 4313,
      "Ġdro": 4314,
      "ĠPR": 4315,
      "Ġchann": 4316,
      "Ġpeace": 4317,
      "ĠAss": 4318,
      "ĠAlthough": 4319,
      "Ġaudio": 4320,
      "ĠWashington": 4321,
      "Ġmer": 4322,
      "Ġnames": 4323,
      "essions": 4324,
      "Ġshape": 4325,
      "Ġtend": 4326,
      "Ġrock": 4327,
      "Ġevening": 4328,
      "Ġmemory": 4329,
      "Ġpassed": 4330,
      "ĠTex": 4331,
      "ĠRoad": 4332,
      "Ġselected": 4333,
      "Ġfailure": 4334,
      "lation": 4335,
      "ss": 4336,
      "Ġtub": 4337,
      "Ġmiddle": 4338,
      "ĠII": 4339,
      "ĠAv": 4340,
      "ĠMicro": 4341,
      "Ġran": 4342,
      "Ġdecide": 4343,
      "ĠRead": 4344,
      "Ġexciting": 4345,
      "fast": 4346,
      "yer": 4347,
      "iration": 4348,
      "ĠDem": 4349,
      "ĠLight": 4350,
      "Ġstatement": 4351,
      "Ġchanging": 4352,
      "Ġfigure": 4353,
      "Ġsociety": 4354,
      "Ne": 4355,
      "fit": 4356,
      "Ġfib": 4357,
      "ented": 4358,
      "ĠTop": 4359,
      "ĠCustom": 4360,
      "Ġalone": 4361,
      "ĠPost": 4362,
      "Ġnumerous": 4363,
      "Ġenjoyed": 4364,
      "Ġexclus": 4365,
      "Ġmotor": 4366,
      "Ġschedule": 4367,
      "Ġcitiz": 4368,
      "ken": 4369,
      "Ġwire": 4370,
      "Ġwild": 4371,
      "Ġwrote": 4372,
      "Ġreality": 4373,
      "using": 4374,
      "ĠBecause": 4375,
      "ĠThursday": 4376,
      "ĠInf": 4377,
      "Ġrecipe": 4378,
      "Ġmedium": 4379,
      "Ġformat": 4380,
      "Ġruns": 4381,
      "Ġbiggest": 4382,
      "Ġrooms": 4383,
      "Ġexcited": 4384,
      "www": 4385,
      "Ġestablish": 4386,
      "Ġstrugg": 4387,
      "rees": 4388,
      "Ġban": 4389,
      "roid": 4390,
      "aming": 4391,
      "Ġsector": 4392,
      "Ġsuff": 4393,
      "ĠJack": 4394,
      "Ġspons": 4395,
      "Ġscience": 4396,
      "Ġseeing": 4397,
      "Ġhappens": 4398,
      "Ġcentral": 4399,
      "Ġcentury": 4400,
      "Ġwebsites": 4401,
      "ĠCommission": 4402,
      "Ġpackage": 4403,
      "hensive": 4404,
      "100": 4405,
      "tion": 4406,
      "inch": 4407,
      "itude": 4408,
      "Ġmaster": 4409,
      "ĠTor": 4410,
      "Ġship": 4411,
      "ĠElect": 4412,
      "Ġplenty": 4413,
      "Ġimpl": 4414,
      "nown": 4415,
      "Ġkeeping": 4416,
      "Ġclasses": 4417,
      "iverse": 4418,
      "Ġfacility": 4419,
      "Ġpresented": 4420,
      "Ġcounter": 4421,
      "ĠOffice": 4422,
      "Ġcamera": 4423,
      "Ġfabric": 4424,
      "Don": 4425,
      "Ġfilled": 4426,
      "ĠMod": 4427,
      "Ġclosed": 4428,
      "Ġresist": 4429,
      "ternal": 4430,
      "Ġacadem": 4431,
      "Ġsmooth": 4432,
      "Ġoperating": 4433,
      "Ġbrother": 4434,
      ".)": 4435,
      "mm": 4436,
      "Ġdut": 4437,
      "Ġlands": 4438,
      "ĠWed": 4439,
      "ĠOnline": 4440,
      "Ġdiet": 4441,
      "Ġmanager": 4442,
      "Ġcharacters": 4443,
      "âĤ": 4444,
      "Ġwife": 4445,
      "oma": 4446,
      "Ġeight": 4447,
      "semb": 4448,
      "osing": 4449,
      "Ġoutdoor": 4450,
      "Ġresidents": 4451,
      "overed": 4452,
      "Ġbusy": 4453,
      "While": 4454,
      "Ġcontinued": 4455,
      "Ġwindow": 4456,
      "craft": 4457,
      "kin": 4458,
      "ying": 4459,
      "ĠĠ": 4460,
      "rem": 4461,
      "Ġstar": 4462,
      "Ġhaven": 4463,
      "ĠFound": 4464,
      "ĠProdu": 4465,
      "Ġextensive": 4466,
      "Ġinvestig": 4467,
      "Ġdocuments": 4468,
      "Ġsuitable": 4469,
      "ĠBritish": 4470,
      "Ġter": 4471,
      "ĠSal": 4472,
      "Ġstream": 4473,
      "Ġcouldn": 4474,
      "Ġdriver": 4475,
      "IK": 4476,
      "ded": 4477,
      "Ġlux": 4478,
      "ĠPC": 4479,
      "ĠRoy": 4480,
      "ĠEU": 4481,
      "ferences": 4482,
      "Ġlaws": 4483,
      "Ġselling": 4484,
      "Ġelements": 4485,
      "ĠBuild": 4486,
      "ĠBoard": 4487,
      "IP": 4488,
      "pan": 4489,
      "Ġtag": 4490,
      "Ġtoward": 4491,
      "ĠFore": 4492,
      "ĠFind": 4493,
      "ĠLake": 4494,
      "Ġteaching": 4495,
      "Ġresume": 4496,
      "Ġworkers": 4497,
      "Ġrelig": 4498,
      "uesday": 4499,
      "Ġworksh": 4500,
      "Ġanti": 4501,
      "Ġmaximum": 4502,
      "BC": 4503,
      "IR": 4504,
      "cut": 4505,
      "Ġfashion": 4506,
      "Ġden": 4507,
      "ĠPet": 4508,
      "text": 4509,
      "Ġwhose": 4510,
      "Ġfamous": 4511,
      "ĠClub": 4512,
      "Ġvisitors": 4513,
      "Ġdiagn": 4514,
      "ĠPhot": 4515,
      "Ġswitch": 4516,
      "ĠAfrica": 4517,
      "ray": 4518,
      "Ġfish": 4519,
      "Ġmort": 4520,
      "Ġgarden": 4521,
      "ĠDist": 4522,
      "Ġdoctor": 4523,
      "ago": 4524,
      "Ġclimate": 4525,
      "Ġposts": 4526,
      "Ġprocessing": 4527,
      "Ġleads": 4528,
      "Ġopened": 4529,
      "Ġlaunch": 4530,
      "Ġbedroom": 4531,
      "Ġprincip": 4532,
      "Ġwat": 4533,
      "Ġcast": 4534,
      "Ġcake": 4535,
      "ala": 4536,
      "Ġdied": 4537,
      "ĠUN": 4538,
      "Ġ31": 4539,
      "Ġaccident": 4540,
      "Ġlimit": 4541,
      "Ġupdated": 4542,
      "Ġmentioned": 4543,
      "ech": 4544,
      "rial": 4545,
      "ero": 4546,
      "Ġhospital": 4547,
      "Ġstation": 4548,
      "ĠLife": 4549,
      "Ġactions": 4550,
      "Ġactual": 4551,
      "Ġprocesses": 4552,
      "ribute": 4553,
      "Ġsmaller": 4554,
      "Ġcleaning": 4555,
      "Ġtaste": 4556,
      "ĠGovernment": 4557,
      "Ġrestaurant": 4558,
      "ĠAC": 4559,
      "ula": 4560,
      "Ġseven": 4561,
      "osis": 4562,
      "Ġworry": 4563,
      "Ġdish": 4564,
      "ownload": 4565,
      "Ġconcent": 4566,
      "Ġhappened": 4567,
      "ĠFlorida": 4568,
      "LC": 4569,
      "een": 4570,
      "vision": 4571,
      "iner": 4572,
      "ooper": 4573,
      "Ġunf": 4574,
      "ĠVol": 4575,
      "Ġrare": 4576,
      "Ġbright": 4577,
      "Ġmarkets": 4578,
      "Ġthoughts": 4579,
      "Ġgrant": 4580,
      "Ġcombination": 4581,
      "Ġarchitect": 4582,
      "Ġingredients": 4583,
      "Your": 4584,
      "Ġproud": 4585,
      "Ġmo": 4586,
      "Ġdating": 4587,
      "ĠIde": 4588,
      "They": 4589,
      "Ġsports": 4590,
      "Ġproduced": 4591,
      "ampions": 4592,
      "Ġtechniques": 4593,
      "ĠAnn": 4594,
      "Ġreflect": 4595,
      "Ġpolicies": 4596,
      "Ġapplied": 4597,
      "28": 4598,
      "miss": 4599,
      "Ġsenior": 4600,
      "Ġpull": 4601,
      "Ġdaughter": 4602,
      "ulf": 4603,
      "order": 4604,
      "Ġrap": 4605,
      "Ġrain": 4606,
      "Ġflight": 4607,
      "Ġforms": 4608,
      "cuit": 4609,
      "Ġvolunte": 4610,
      "Ġ?": 4611,
      "Ġfle": 4612,
      "Ġeating": 4613,
      "ifts": 4614,
      "Ġfees": 4615,
      "Ġrefer": 4616,
      "Ġrecommended": 4617,
      "Ġaccommod": 4618,
      "Ġstrategies": 4619,
      "Ġtow": 4620,
      "ĠST": 4621,
      "imb": 4622,
      "Ġknows": 4623,
      "Ġcalls": 4624,
      "Ġobv": 4625,
      "ĠGerman": 4626,
      "Ġencourage": 4627,
      "nesday": 4628,
      "works": 4629,
      "23": 4630,
      "hi": 4631,
      "Ġborn": 4632,
      "Ġpul": 4633,
      "icy": 4634,
      "Ġstick": 4635,
      "Ġshut": 4636,
      "ĠLos": 4637,
      "ervation": 4638,
      "Ġargu": 4639,
      "Ġminute": 4640,
      "Ġtransact": 4641,
      "Ġhandle": 4642,
      "Ġmetal": 4643,
      "Ġhttp": 4644,
      "EM": 4645,
      "iance": 4646,
      "uable": 4647,
      "yn": 4648,
      "Ġsch": 4649,
      "Ġcore": 4650,
      "Ġfans": 4651,
      "Ġdur": 4652,
      "Ġhom": 4653,
      "ĠMary": 4654,
      "ĠPort": 4655,
      "Ġsugar": 4656,
      "Ġ29": 4657,
      "osition": 4658,
      "ĠThank": 4659,
      "ĠIns": 4660,
      "Ġscen": 4661,
      "Ġsched": 4662,
      "Thanks": 4663,
      "Ġ90": 4664,
      "Ġcaused": 4665,
      "Ġtradem": 4666,
      "ĠTexas": 4667,
      "bMC": 4668,
      "gn": 4669,
      "itors": 4670,
      "Ġpark": 4671,
      "Ġsea": 4672,
      "Ġwaste": 4673,
      "soft": 4674,
      "Ġmeant": 4675,
      "Ġsymb": 4676,
      "Ġreliable": 4677,
      "Ġflu": 4678,
      "Ġdirector": 4679,
      "Ġfields": 4680,
      "Ġalternative": 4681,
      "IV": 4682,
      "mail": 4683,
      "ĠTuesday": 4684,
      "uled": 4685,
      "ĠBre": 4686,
      "Ġperhaps": 4687,
      "inese": 4688,
      "Ġveget": 4689,
      "Ġinstallation": 4690,
      "zz": 4691,
      "Ġearth": 4692,
      "ĠMill": 4693,
      "Ġwhatever": 4694,
      "unning": 4695,
      "ĠBank": 4696,
      "Ġchoices": 4697,
      "Ġbrings": 4698,
      "Ġexpress": 4699,
      "Ġexpensive": 4700,
      "ception": 4701,
      "Ġtypically": 4702,
      "Ġmanaged": 4703,
      "hetic": 4704,
      "ĠWindows": 4705,
      "Ġthousands": 4706,
      "ga": 4707,
      "rated": 4708,
      "Ġfol": 4709,
      "ĠSpe": 4710,
      "Ġalbum": 4711,
      "ĠMem": 4712,
      "ĠPublic": 4713,
      "Ġvan": 4714,
      "Ġchocolate": 4715,
      "ĠOver": 4716,
      "Ġspect": 4717,
      "Ġmulti": 4718,
      "Ġmajority": 4719,
      "Ġticket": 4720,
      "Ġfuel": 4721,
      "ĠTHE": 4722,
      "Ġchemical": 4723,
      "rical": 4724,
      "ya": 4725,
      "Ġterr": 4726,
      "Ġsnow": 4727,
      "uries": 4728,
      "ĠBay": 4729,
      "ĠOh": 4730,
      "Ġincome": 4731,
      "Ġdelicious": 4732,
      "ĠExp": 4733,
      "ĠResearch": 4734,
      "Ġpair": 4735,
      "iled": 4736,
      "ĠID": 4737,
      "Ġproceed": 4738,
      "acing": 4739,
      "Ġlose": 4740,
      "Ġotherwise": 4741,
      "Ġpresident": 4742,
      "azon": 4743,
      "Ġcontinues": 4744,
      "poses": 4745,
      "ĠMedical": 4746,
      "friend": 4747,
      "fol": 4748,
      "Ġmist": 4749,
      "Ġreached": 4750,
      "ĠCard": 4751,
      "Ġmanner": 4752,
      "Ġappeal": 4753,
      "Ġunits": 4754,
      "Ġbecoming": 4755,
      "Ġacid": 4756,
      "29": 4757,
      "DA": 4758,
      "oor": 4759,
      "Ġwww": 4760,
      "Ġpal": 4761,
      "ask": 4762,
      "ĠSil": 4763,
      "ĠAnt": 4764,
      "ĠUnder": 4765,
      "Ġgovern": 4766,
      "Ġperformed": 4767,
      "Ġwaiting": 4768,
      "Ġdrug": 4769,
      "Ġsouth": 4770,
      "Ġmine": 4771,
      "Ġder": 4772,
      "Ġlived": 4773,
      "âĢĭ": 4774,
      "ĠMet": 4775,
      "Ġgoods": 4776,
      "Why": 4777,
      "arrant": 4778,
      "Ġcalc": 4779,
      "ĠWilliam": 4780,
      "Ġseparate": 4781,
      "21": 4782,
      "TS": 4783,
      "cles": 4784,
      "ht": 4785,
      "known": 4786,
      "Ġlad": 4787,
      "ĠSoc": 4788,
      "Ġang": 4789,
      "reek": 4790,
      "ternoon": 4791,
      "Ġbecomes": 4792,
      "Ġstarts": 4793,
      "Ġoccup": 4794,
      "Ġfamiliar": 4795,
      "Ġconcerns": 4796,
      "ION": 4797,
      "met": 4798,
      "ĠMake": 4799,
      "Ġtrading": 4800,
      "Ġdrink": 4801,
      "ĠPlan": 4802,
      "Ġforeign": 4803,
      "Ġmenu": 4804,
      "Ġautomatically": 4805,
      "Ġinnovative": 4806,
      "\",": 4807,
      "den": 4808,
      "hab": 4809,
      "Ġir": 4810,
      "Ġthus": 4811,
      "Ġeffic": 4812,
      "Ġaspects": 4813,
      "ĠVe": 4814,
      "Ġemp": 4815,
      "Ġshowing": 4816,
      "Ġclassic": 4817,
      "Ġpreviously": 4818,
      "Ġlaun": 4819,
      "Ġcoverage": 4820,
      "Ġpanel": 4821,
      "Ġhonest": 4822,
      "Ġdatab": 4823,
      "Ġerror": 4824,
      "ĠDirector": 4825,
      "âĤ¬": 4826,
      "lines": 4827,
      "van": 4828,
      "Ġton": 4829,
      "ĠCong": 4830,
      "Ġven": 4831,
      "ĠRock": 4832,
      "outhern": 4833,
      "enses": 4834,
      "ocr": 4835,
      "ocal": 4836,
      "Ġtopic": 4837,
      "Ġvalues": 4838,
      "Ġ80": 4839,
      "ximately": 4840,
      "Ġexpertise": 4841,
      "Ġhouses": 4842,
      "500": 4843,
      "bl": 4844,
      "Ġtree": 4845,
      "Ġast": 4846,
      "eds": 4847,
      "Ġrepe": 4848,
      "Ġshel": 4849,
      "Ġguys": 4850,
      "Ġcomprehensive": 4851,
      "iers": 4852,
      "well": 4853,
      "atures": 4854,
      "asure": 4855,
      "otton": 4856,
      "ĠHy": 4857,
      "Ġvoice": 4858,
      "Ġshares": 4859,
      "Ġloan": 4860,
      "icken": 4861,
      "Ġshowed": 4862,
      "Ġgeneration": 4863,
      "Ġspecies": 4864,
      "Ġcris": 4865,
      "Ġeconomy": 4866,
      "Ġfunds": 4867,
      "IM": 4868,
      "Un": 4869,
      "atre": 4870,
      "Ġnorth": 4871,
      "ĠFood": 4872,
      "ĠâĢ¦": 4873,
      "ava": 4874,
      "Ġattor": 4875,
      "Ġvisiting": 4876,
      "Ġconnected": 4877,
      "Ġrelationships": 4878,
      "Ġbillion": 4879,
      "Ġteachers": 4880,
      "Ġleadership": 4881,
      "Ġaffordable": 4882,
      "Ġsatisf": 4883,
      "Ġanc": 4884,
      "ĠMex": 4885,
      "Ġshoot": 4886,
      "uman": 4887,
      "Ġspring": 4888,
      "Ġserving": 4889,
      "Ġvideos": 4890,
      "Ġarrange": 4891,
      "Ġannounce": 4892,
      "Ġfantastic": 4893,
      "Ar": 4894,
      "cher": 4895,
      "cape": 4896,
      "inations": 4897,
      "Ġbon": 4898,
      "ĠIS": 4899,
      "cean": 4900,
      "ĠRich": 4901,
      "ĠLove": 4902,
      "Ġleaves": 4903,
      "outs": 4904,
      "tered": 4905,
      "Ġcomplic": 4906,
      "Ġanywhere": 4907,
      "bert": 4908,
      "....": 4909,
      "prise": 4910,
      "ĠNetwork": 4911,
      "Ġevalu": 4912,
      "ĠWednesday": 4913,
      "Con": 4914,
      "Ġign": 4915,
      "Ġfell": 4916,
      "iders": 4917,
      "ĠSun": 4918,
      "ĠPower": 4919,
      "Ġquant": 4920,
      "ĠFrance": 4921,
      "Ġinfo": 4922,
      "Ġresponsibility": 4923,
      "Ġappears": 4924,
      "Ġaccompl": 4925,
      "Ġvehicles": 4926,
      "gment": 4927,
      "Ġec": 4928,
      "Ġreference": 4929,
      "ĠCam": 4930,
      "ĠCall": 4931,
      "Ġrub": 4932,
      "emporary": 4933,
      "ildren": 4934,
      "Ġguess": 4935,
      "Ġprepare": 4936,
      "Here": 4937,
      "Ġvolume": 4938,
      "Ġindependent": 4939,
      "Ġguarantee": 4940,
      "Ġneighbor": 4941,
      "Ġbowl": 4942,
      "win": 4943,
      "ĠMach": 4944,
      "ĠHel": 4945,
      "ĠLou": 4946,
      "rupt": 4947,
      "ĠChinese": 4948,
      "Ġ2009": 4949,
      "ograp": 4950,
      "Ġtempl": 4951,
      "going": 4952,
      "Ġfeedback": 4953,
      "74": 4954,
      "tics": 4955,
      "Ġtherapy": 4956,
      "eria": 4957,
      "Ġdie": 4958,
      "ĠSur": 4959,
      "Ġamb": 4960,
      "Ġcolle": 4961,
      "Ġsheet": 4962,
      "Ġdetailed": 4963,
      "Ġfavour": 4964,
      "Ġinstalled": 4965,
      "Ġadults": 4966,
      "She": 4967,
      "eared": 4968,
      "estic": 4969,
      "ĠUse": 4970,
      "Ġtrial": 4971,
      "Ġtruth": 4972,
      "Ġregistration": 4973,
      "Ġlocations": 4974,
      "Ġproperly": 4975,
      "Ġestim": 4976,
      "ĠConst": 4977,
      "opped": 4978,
      "which": 4979,
      "Ġhosting": 4980,
      "Ġdescribed": 4981,
      "ĠDavid": 4982,
      "eed": 4983,
      "Ġfederal": 4984,
      "ada": 4985,
      "ĠWall": 4986,
      "Ġcancer": 4987,
      "umber": 4988,
      "Ġjew": 4989,
      "log": 4990,
      "ĠUs": 4991,
      "Ġspl": 4992,
      "Ġcommitted": 4993,
      "Ġinterior": 4994,
      "ĠTeam": 4995,
      "ĠPlay": 4996,
      "ifying": 4997,
      "ĠScience": 4998,
      "ĠApple": 4999,
      "ĠCheck": 5000,
      "ĠPeople": 5001,
      "Ġrestaurants": 5002,
      "Ġhorse": 5003,
      "Ġbehavior": 5004,
      "Ġsessions": 5005,
      "atin": 5006,
      "isation": 5007,
      "Ġpump": 5008,
      "Ġlabor": 5009,
      "ĠAlex": 5010,
      "elines": 5011,
      "Ġourselves": 5012,
      "Ġafternoon": 5013,
      "Ġcorner": 5014,
      "Ġfunding": 5015,
      "Ġadvertising": 5016,
      "Just": 5017,
      "amm": 5018,
      "Ġweak": 5019,
      "Ġjoy": 5020,
      "akers": 5021,
      "Ġremains": 5022,
      "Ġdesigns": 5023,
      "Ġsecret": 5024,
      "Ġmilitary": 5025,
      "Ġenhance": 5026,
      "Ġopinion": 5027,
      "Ġdram": 5028,
      "vere": 5029,
      "irts": 5030,
      "ĠMad": 5031,
      "Ġtrail": 5032,
      "Ġrecip": 5033,
      "Ġwouldn": 5034,
      "Ġedge": 5035,
      "Ġpurposes": 5036,
      "Ġcentre": 5037,
      "Ġconfidence": 5038,
      "Ġachie": 5039,
      "90": 5040,
      "Ġtape": 5041,
      "itar": 5042,
      "itam": 5043,
      "orial": 5044,
      "Ġfem": 5045,
      "Ġpsych": 5046,
      "icon": 5047,
      "ĠSub": 5048,
      "Ġshot": 5049,
      "ĠNor": 5050,
      "Ġleaving": 5051,
      "Ġquot": 5052,
      "Ġdistin": 5053,
      "Ġparking": 5054,
      "ennis": 5055,
      "liance": 5056,
      "ĠCanadian": 5057,
      "Ġremoved": 5058,
      "Not": 5059,
      "list": 5060,
      "arp": 5061,
      "Ġlunch": 5062,
      "ĠMain": 5063,
      "Ġplastic": 5064,
      "Ġmap": 5065,
      "earn": 5066,
      "Ġpresence": 5067,
      "azine": 5068,
      "Ġbuildings": 5069,
      "ĠSocial": 5070,
      "Ġexplain": 5071,
      "Ġdatas": 5072,
      "Ġawesome": 5073,
      "Ġpatterns": 5074,
      "Some": 5075,
      "top": 5076,
      "ĠDiv": 5077,
      "ĠEv": 5078,
      "ĠOpen": 5079,
      "Ġoutput": 5080,
      "inder": 5081,
      "ĠJour": 5082,
      "Ġindustrial": 5083,
      "Ġaccounts": 5084,
      "ĠEngland": 5085,
      "Ġframe": 5086,
      "Ġpredict": 5087,
      "Ġminimum": 5088,
      "From": 5089,
      "hand": 5090,
      "mond": 5091,
      "with": 5092,
      "Ġfaster": 5093,
      "ĠCur": 5094,
      "ĠCap": 5095,
      "ament": 5096,
      "ĠMil": 5097,
      "ĠBet": 5098,
      "ĠWork": 5099,
      "osen": 5100,
      "Ġhighlight": 5101,
      "Ġconfig": 5102,
      "ĠAdd": 5103,
      "Ġbrown": 5104,
      "Ġpromote": 5105,
      "Ġcabin": 5106,
      "Ġfurniture": 5107,
      "ĠGeneral": 5108,
      "CA": 5109,
      "rey": 5110,
      "Ġdial": 5111,
      "aser": 5112,
      "ĠSl": 5113,
      "ĠCamp": 5114,
      "Ġjoint": 5115,
      "aped": 5116,
      "Ġagent": 5117,
      "Ġreput": 5118,
      "Ġdete": 5119,
      "Ġelim": 5120,
      "Ġtrend": 5121,
      "Ġprocedures": 5122,
      "Ġorders": 5123,
      "Ġcomponents": 5124,
      "Ġsympt": 5125,
      "uce": 5126,
      "Ġsem": 5127,
      "anta": 5128,
      "Ġcompar": 5129,
      "aren": 5130,
      "ĠJames": 5131,
      "Ġlisten": 5132,
      "Ġ70": 5133,
      "ructure": 5134,
      "Ġcombined": 5135,
      "mes": 5136,
      "Ġegg": 5137,
      "ĠToday": 5138,
      "raw": 5139,
      "ĠMag": 5140,
      "unction": 5141,
      "ĠTheir": 5142,
      "ĠHist": 5143,
      "ivered": 5144,
      "Ġrat": 5145,
      "Ġregistered": 5146,
      "Ġsubmit": 5147,
      "Ġfunctions": 5148,
      "ĠClick": 5149,
      "Ġapproximately": 5150,
      "Ġinterests": 5151,
      "ĠCentral": 5152,
      "Ġreturned": 5153,
      "ĠRepublic": 5154,
      "Ġteacher": 5155,
      "Ġrapid": 5156,
      "Me": 5157,
      "yal": 5158,
      "Ġtun": 5159,
      "itz": 5160,
      "state": 5161,
      "ĠSam": 5162,
      "ĠOb": 5163,
      "Ġunless": 5164,
      "berg": 5165,
      "ricult": 5166,
      "Ġdynam": 5167,
      "By": 5168,
      "kers": 5169,
      "Ġnor": 5170,
      "ĠAM": 5171,
      "Ġneck": 5172,
      "ĠRet": 5173,
      "ĠRiver": 5174,
      "Ġgreatest": 5175,
      "rier": 5176,
      "Ġapproved": 5177,
      "Ġsuccessfully": 5178,
      "ography": 5179,
      "Ġbathroom": 5180,
      "Ġassessment": 5181,
      "Ġslightly": 5182,
      "26": 5183,
      "eper": 5184,
      "ias": 5185,
      "Ġwarrant": 5186,
      "Ġcivil": 5187,
      "ola": 5188,
      "umin": 5189,
      "ellig": 5190,
      "inding": 5191,
      "Ġdespite": 5192,
      "Ġscore": 5193,
      "Ġregister": 5194,
      "Ġimportance": 5195,
      "Ġdistance": 5196,
      "Ġcutting": 5197,
      "Ġinspired": 5198,
      "Ġlicense": 5199,
      "Ġprocedure": 5200,
      "Ġcategory": 5201,
      "36": 5202,
      "De": 5203,
      "ius": 5204,
      "Ġwid": 5205,
      "Ġburn": 5206,
      "asy": 5207,
      "ĠSite": 5208,
      "Ġvote": 5209,
      "Ġring": 5210,
      "Ġtea": 5211,
      "Ġlovely": 5212,
      "Ġsigns": 5213,
      "ĠBeach": 5214,
      "ĠQue": 5215,
      "Ġglad": 5216,
      "Ġfreed": 5217,
      "Ġgirls": 5218,
      "Ġguidance": 5219,
      "ĠSociety": 5220,
      "mal": 5221,
      "Ġthrow": 5222,
      "ston": 5223,
      "Ġisland": 5224,
      "rab": 5225,
      "Ġteach": 5226,
      "Ġdesk": 5227,
      "Ġended": 5228,
      "Ġlegis": 5229,
      "Ġconstruct": 5230,
      "Ġtasks": 5231,
      "ĠAfrican": 5232,
      "Ġwalking": 5233,
      "Ġemerg": 5234,
      "OP": 5235,
      "TA": 5236,
      "pet": 5237,
      "Ġtight": 5238,
      "Ġcatch": 5239,
      "Ġbread": 5240,
      "Ġdim": 5241,
      "Ġnav": 5242,
      "ĠCode": 5243,
      "ads": 5244,
      "Ġcontext": 5245,
      "antic": 5246,
      "Ġride": 5247,
      "ulty": 5248,
      "ĠYes": 5249,
      "Ġdecades": 5250,
      "Ġsurvey": 5251,
      "Ġmonthly": 5252,
      "Ġallowing": 5253,
      "Ġelectronic": 5254,
      "Ġcompetitive": 5255,
      "Ġtotally": 5256,
      "Ġdiscussion": 5257,
      "Ġinjury": 5258,
      "Ġdepartment": 5259,
      "Ġdepending": 5260,
      "Ġabsolutely": 5261,
      "Ġbattery": 5262,
      "Ġacademic": 5263,
      "la": 5264,
      "nel": 5265,
      "yc": 5266,
      "Ã¼": 5267,
      "Ġtail": 5268,
      "Ġwitness": 5269,
      "Ġeth": 5270,
      "Ġasking": 5271,
      "Ġlogo": 5272,
      "Ġclearly": 5273,
      "Ġjoined": 5274,
      "Ġcoup": 5275,
      "Ġspecifically": 5276,
      "Ġaudience": 5277,
      "Ġregularly": 5278,
      "Jo": 5279,
      "ugg": 5280,
      "Ġbird": 5281,
      "Ġinput": 5282,
      "Ġgather": 5283,
      "ĠMedic": 5284,
      "erves": 5285,
      "Ġinstru": 5286,
      "Ġdelivered": 5287,
      "Ġseconds": 5288,
      "Ġwinning": 5289,
      "Ġnegative": 5290,
      "IA": 5291,
      "flow": 5292,
      "pire": 5293,
      "point": 5294,
      "Ġtables": 5295,
      "inating": 5296,
      "Ġcities": 5297,
      "Ġbond": 5298,
      "omet": 5299,
      "ĠIP": 5300,
      "usion": 5301,
      "ĠPay": 5302,
      "ĠHill": 5303,
      "Ġwilling": 5304,
      "ĠEqu": 5305,
      "ĠChar": 5306,
      "Ġseeking": 5307,
      "Ġcultural": 5308,
      "Ġhyd": 5309,
      "Ġradio": 5310,
      "SA": 5311,
      "no": 5312,
      "spe": 5313,
      "ilit": 5314,
      "ĠTom": 5315,
      "ĠSing": 5316,
      "oose": 5317,
      "Ġexchange": 5318,
      "arts": 5319,
      "ĠLord": 5320,
      "ĠLAS": 5321,
      "Ġjump": 5322,
      "Ġbutter": 5323,
      "Ġspending": 5324,
      "Ġ500": 5325,
      "Ġsimpl": 5326,
      "Ġcalling": 5327,
      "Ġ2008": 5328,
      "bed": 5329,
      "td": 5330,
      "rain": 5331,
      "irgin": 5332,
      "Ġvess": 5333,
      "resp": 5334,
      "ĠGlo": 5335,
      "ĠOF": 5336,
      "Ġarm": 5337,
      "Ġmostly": 5338,
      "Ġvaluable": 5339,
      "ĠShow": 5340,
      "Ġcharges": 5341,
      "Ġbrands": 5342,
      "Ġpractical": 5343,
      "Ġkinds": 5344,
      "Ġholding": 5345,
      "ĠAmazon": 5346,
      "Ġlicens": 5347,
      "Pl": 5348,
      "zen": 5349,
      "hent": 5350,
      "Ġment": 5351,
      "Ġdining": 5352,
      "Ġhar": 5353,
      "ĠTake": 5354,
      "ĠCapt": 5355,
      "ĠFire": 5356,
      "Ġdecl": 5357,
      "Ġinstance": 5358,
      "Ġsurge": 5359,
      "Ġpossibly": 5360,
      "Ġtests": 5361,
      "iveness": 5362,
      "Ġappearance": 5363,
      "Ġmotiv": 5364,
      "Ġconvenient": 5365,
      "Ġfruit": 5366,
      "33": 5367,
      "New": 5368,
      "Ġox": 5369,
      "Ġbike": 5370,
      "edy": 5371,
      "Ġgun": 5372,
      "ighter": 5373,
      "Ġseat": 5374,
      "Ġdoors": 5375,
      "Ġenable": 5376,
      "Ġperman": 5377,
      "Ġagencies": 5378,
      "luding": 5379,
      "ĠArch": 5380,
      "Ġprivacy": 5381,
      "Ġwindows": 5382,
      "Ġconsumers": 5383,
      "Ġbegins": 5384,
      "Ġsymbol": 5385,
      "Ġefficiency": 5386,
      "RA": 5387,
      "can": 5388,
      "fl": 5389,
      "night": 5390,
      "rition": 5391,
      "Ã¡": 5392,
      "Ġfold": 5393,
      "ĠSto": 5394,
      "oles": 5395,
      "ĠMo": 5396,
      "ĠBen": 5397,
      "ĠData": 5398,
      "Ġnoted": 5399,
      "Ġ35": 5400,
      "Ġraised": 5401,
      "cohol": 5402,
      "Ġofficials": 5403,
      "Ġframew": 5404,
      "Ġqualified": 5405,
      "Ġawarded": 5406,
      "Ġschol": 5407,
      "):": 5408,
      "cont": 5409,
      "Ġben": 5410,
      "lets": 5411,
      "Ġyes": 5412,
      "Ġforces": 5413,
      "verse": 5414,
      "Ġresolution": 5415,
      "Ġsport": 5416,
      "Ġagg": 5417,
      "Ġ300": 5418,
      "Ġtwice": 5419,
      "Ġphase": 5420,
      "ĠAsia": 5421,
      "Ġbrief": 5422,
      "Ġassets": 5423,
      "ĠArts": 5424,
      "Ġputting": 5425,
      "esterday": 5426,
      "ĠCommunity": 5427,
      "cious": 5428,
      "equ": 5429,
      "how": 5430,
      "look": 5431,
      "ua": 5432,
      "Ġcrow": 5433,
      "ician": 5434,
      "Ġforum": 5435,
      "ĠWood": 5436,
      "ĠFil": 5437,
      "Ġquiet": 5438,
      "apos": 5439,
      "ĠStar": 5440,
      "Ġarticles": 5441,
      "Ġprogramme": 5442,
      "Ġoperate": 5443,
      "ĠExper": 5444,
      "Ġrisks": 5445,
      "Ġflowers": 5446,
      "ĠCarol": 5447,
      "ĠAngel": 5448,
      "44": 5449,
      "Des": 5450,
      "bour": 5451,
      "Ġwalls": 5452,
      "vell": 5453,
      "urally": 5454,
      "ĠSpecial": 5455,
      "eless": 5456,
      "ĠMot": 5457,
      "Ġdeals": 5458,
      "Ġvary": 5459,
      "Ġfeels": 5460,
      "Ġpregn": 5461,
      "Ġ45": 5462,
      "ĠUnion": 5463,
      "ĠReal": 5464,
      "ĠReview": 5465,
      "Ġtransform": 5466,
      "Ġpurchased": 5467,
      "Ġmilk": 5468,
      "Once": 5469,
      "Ġspeaker": 5470,
      "Ġappreciate": 5471,
      "Ġdatabase": 5472,
      "Acc": 5473,
      "TH": 5474,
      "Ġmal": 5475,
      "Ġdu": 5476,
      "Ġbeat": 5477,
      "âĢĻ,": 5478,
      "ĠWor": 5479,
      "ĠHave": 5480,
      "ĠThom": 5481,
      "apers": 5482,
      "Ġnovel": 5483,
      "away": 5484,
      "Ġtechnologies": 5485,
      "Ġ2007": 5486,
      "Ġinvestigation": 5487,
      "Ġconstantly": 5488,
      "âĢ¦.": 5489,
      "ĠEngine": 5490,
      "Ġwatching": 5491,
      "Ġnegot": 5492,
      "Ġsongs": 5493,
      "Ġvictim": 5494,
      "ĠMichael": 5495,
      "BS": 5496,
      "Se": 5497,
      "gage": 5498,
      "rd": 5499,
      "Ġsample": 5500,
      "ario": 5501,
      "ĠWal": 5502,
      "Ġleather": 5503,
      "Ġsole": 5504,
      "Ġprofile": 5505,
      "Ġfiled": 5506,
      "what": 5507,
      "ixture": 5508,
      "77": 5509,
      "Every": 5510,
      "life": 5511,
      "mosp": 5512,
      "Ġgro": 5513,
      "etime": 5514,
      "Ġwhom": 5515,
      "Ġconsequ": 5516,
      "osh": 5517,
      "Ġrecovery": 5518,
      "Ġguy": 5519,
      "Ġprofit": 5520,
      "Ġreduced": 5521,
      "Ġreasonable": 5522,
      "Ġsupplies": 5523,
      "Ġvirtual": 5524,
      "Ġ*": 5525,
      "Ġap": 5526,
      "Ġweap": 5527,
      "ĠFam": 5528,
      "istan": 5529,
      "ails": 5530,
      "Ġcoach": 5531,
      "Ġcoord": 5532,
      "Thank": 5533,
      "Ġ2006": 5534,
      "Ġobl": 5535,
      "Ġfilter": 5536,
      "ditionally": 5537,
      "Ġmeetings": 5538,
      "However": 5539,
      "Ġintroduced": 5540,
      "ĠValley": 5541,
      "ĠLASIK": 5542,
      "hentic": 5543,
      "Ã¶": 5544,
      "ĠÑ": 5545,
      "Ġfly": 5546,
      "Ġdance": 5547,
      "ĠCat": 5548,
      "ĠCas": 5549,
      "Ġanx": 5550,
      "ĠMen": 5551,
      "ĠMark": 5552,
      "Ġkill": 5553,
      "Ġcovers": 5554,
      "Ġundert": 5555,
      "Ġdecre": 5556,
      "Ġ2000": 5557,
      "Ġimproved": 5558,
      "Ġemployee": 5559,
      "Ġenvironmental": 5560,
      "Ġmissing": 5561,
      "Ġconsumer": 5562,
      "ĠBrand": 5563,
      "Ġcitizens": 5564,
      "Ġneighborhood": 5565,
      "dy": 5566,
      "men": 5567,
      "alog": 5568,
      "alian": 5569,
      "ometimes": 5570,
      "Ġrevenue": 5571,
      "othes": 5572,
      "ĠPress": 5573,
      "cking": 5574,
      "Ġexternal": 5575,
      "ĠHD": 5576,
      "ĠLtd": 5577,
      "loc": 5578,
      "Ġscale": 5579,
      "Ġauto": 5580,
      "Ġfoundation": 5581,
      "Ġoperator": 5582,
      "Ġlights": 5583,
      "ĠCommit": 5584,
      "liers": 5585,
      "Ġfrequently": 5586,
      "95": 5587,
      "EA": 5588,
      "En": 5589,
      "Ġcotton": 5590,
      "Ġbound": 5591,
      "ĠSand": 5592,
      "igr": 5593,
      "ĠMart": 5594,
      "estyle": 5595,
      "Ġadapt": 5596,
      "Ġspaces": 5597,
      "apes": 5598,
      "Ġeveryday": 5599,
      "ups": 5600,
      "Ġcarefully": 5601,
      "Ġdelight": 5602,
      "Ġpassword": 5603,
      "Ġconsidering": 5604,
      "Ġsignificantly": 5605,
      "OMAN": 5606,
      "Ġdrivers": 5607,
      "Ġtrouble": 5608,
      "ĠAND": 5609,
      "Ġsymptoms": 5610,
      "rome": 5611,
      "ship": 5612,
      "Ġsitting": 5613,
      "Ġcooking": 5614,
      "ota": 5615,
      "Ġprot": 5616,
      "Ġhearing": 5617,
      "Ġdogs": 5618,
      "ĠOld": 5619,
      "Ġupload": 5620,
      "Ġupcoming": 5621,
      "ĠIts": 5622,
      "Ġagreed": 5623,
      "Ġdesire": 5624,
      "Ġdescription": 5625,
      "Ġpharm": 5626,
      "Ġflood": 5627,
      "Ġsolar": 5628,
      "while": 5629,
      "Ġmeasures": 5630,
      "ĠDisney": 5631,
      "Ġmassive": 5632,
      "Ġdistribution": 5633,
      "Ġoccasion": 5634,
      "27": 5635,
      "Since": 5636,
      "rete": 5637,
      "icago": 5638,
      "lements": 5639,
      "Ġgrown": 5640,
      "imately": 5641,
      "umes": 5642,
      "ibilities": 5643,
      "igned": 5644,
      "ĠInformation": 5645,
      "Ġphil": 5646,
      "Ġseek": 5647,
      "Ġcarbon": 5648,
      "pected": 5649,
      "Ġsupported": 5650,
      "Ġpoll": 5651,
      "Ġresearc": 5652,
      "Ġanimal": 5653,
      "Ġdebt": 5654,
      "Ġcounsel": 5655,
      "ĠGrand": 5656,
      "Ġcommitment": 5657,
      "mp": 5658,
      "vention": 5659,
      "ê³": 5660,
      "ĠÐ": 5661,
      "omb": 5662,
      "ĠDownload": 5663,
      "empl": 5664,
      "Ġmeal": 5665,
      "ĠJew": 5666,
      "Ġregional": 5667,
      "Ġmode": 5668,
      "Ġreplica": 5669,
      "Ġeffectively": 5670,
      "ĠProfess": 5671,
      "Dr": 5672,
      "LE": 5673,
      "TC": 5674,
      "bur": 5675,
      "vit": 5676,
      "water": 5677,
      "Ġrenew": 5678,
      "ĠTy": 5679,
      "Ġstret": 5680,
      "Ġrise": 5681,
      "Ġrule": 5682,
      "Ġimpressive": 5683,
      "Ġscene": 5684,
      "Ġrelatively": 5685,
      "Ġrealize": 5686,
      "Ġissued": 5687,
      "Ġbelong": 5688,
      "Ġhistorical": 5689,
      "Ġinfluence": 5690,
      "ĠMicrosoft": 5691,
      "HS": 5692,
      "IG": 5693,
      "lor": 5694,
      "ini": 5695,
      "eries": 5696,
      "Ġthick": 5697,
      "Ġelement": 5698,
      "Ġbeer": 5699,
      "Ġstone": 5700,
      "Ġunc": 5701,
      "never": 5702,
      "Ġknowing": 5703,
      "ords": 5704,
      "Ġinvent": 5705,
      "Ġdesigner": 5706,
      "ports": 5707,
      "ĠColor": 5708,
      "Ġperfectly": 5709,
      "Ġfulf": 5710,
      "Ġsquare": 5711,
      "Ġcircum": 5712,
      "UR": 5713,
      "ê°": 5714,
      "Ġyouth": 5715,
      "etary": 5716,
      "ĠSol": 5717,
      "âĢĻ.": 5718,
      "oop": 5719,
      "Ġdepos": 5720,
      "Ġchosen": 5721,
      "Ġmeat": 5722,
      "Ġguest": 5723,
      "Ġintended": 5724,
      "Ġadvis": 5725,
      "Ġconflic": 5726,
      "ĠBlue": 5727,
      "Ġbringing": 5728,
      "Ġmessages": 5729,
      "holders": 5730,
      "Ġintegrated": 5731,
      "Ġbirthday": 5732,
      "Ġhundreds": 5733,
      "Ġsituations": 5734,
      "ĠJournal": 5735,
      "Last": 5736,
      "Sp": 5737,
      "burg": 5738,
      "uel": 5739,
      "anish": 5740,
      "road": 5741,
      "ĠCA": 5742,
      "ĠRad": 5743,
      "ĠGal": 5744,
      "tending": 5745,
      "Ġkid": 5746,
      "Ġpositions": 5747,
      "Ġadventure": 5748,
      "Ġcapable": 5749,
      "Ġeventually": 5750,
      "Ġswim": 5751,
      "Ġboost": 5752,
      "Any": 5753,
      "Ġexamples": 5754,
      "Ġcircuit": 5755,
      "Ġbreakfast": 5756,
      "Ġparticipate": 5757,
      "Ġlinked": 5758,
      "Ġjournal": 5759,
      "ĠSeries": 5760,
      "Ġconversation": 5761,
      "MS": 5762,
      "hors": 5763,
      "Ġpit": 5764,
      "Ġmental": 5765,
      "ste": 5766,
      "ĠSum": 5767,
      "Ġstars": 5768,
      "ĠBit": 5769,
      "ĠRel": 5770,
      "Ġrail": 5771,
      "Ġremote": 5772,
      "Ġ2005": 5773,
      "ĠAmericans": 5774,
      "ĠAtl": 5775,
      "Ġeducational": 5776,
      "Ġadministr": 5777,
      "Ġhousing": 5778,
      "ĠFoundation": 5779,
      "Ġluxury": 5780,
      ");": 5781,
      "Am": 5782,
      "SE": 5783,
      "Tra": 5784,
      "ban": 5785,
      "bles": 5786,
      "gal": 5787,
      "ml": 5788,
      "net": 5789,
      "Ġtast": 5790,
      "Ġsam": 5791,
      "iti": 5792,
      "aste": 5793,
      "ĠCath": 5794,
      "Ġpropos": 5795,
      "ĠLike": 5796,
      "ĠLog": 5797,
      "ensions": 5798,
      "Ġcoast": 5799,
      "gging": 5800,
      "Ġmusical": 5801,
      "Ġturns": 5802,
      "Ġtrees": 5803,
      "Ġupdates": 5804,
      "Ġdoubt": 5805,
      "Ġdisappoint": 5806,
      "Ġlaunched": 5807,
      "NA": 5808,
      "UI": 5809,
      "ÃŃ": 5810,
      "isco": 5811,
      "icians": 5812,
      "Ġhire": 5813,
      "ĠMaster": 5814,
      "ĠBer": 5815,
      "ĠWhether": 5816,
      "uster": 5817,
      "Ġjack": 5818,
      "Ġking": 5819,
      "Ġresource": 5820,
      "apter": 5821,
      "Ġages": 5822,
      "Ġproviders": 5823,
      "Ġplanned": 5824,
      "Ġpaying": 5825,
      "Ġinfrast": 5826,
      "iked": 5827,
      "Ġpresentation": 5828,
      "Ġpleased": 5829,
      "Ġapartment": 5830,
      "Ġappointed": 5831,
      "Ġsurrounding": 5832,
      "Ġtrademark": 5833,
      "Ġfreedom": 5834,
      "ĠCommittee": 5835,
      "upp": 5836,
      "orough": 5837,
      "ĠAward": 5838,
      "fection": 5839,
      "Ġarg": 5840,
      "Ġarts": 5841,
      "intage": 5842,
      "ifications": 5843,
      "Ġstudio": 5844,
      "Ġsupporting": 5845,
      "Ġkeeps": 5846,
      "ĠScott": 5847,
      "ĠKeep": 5848,
      "Ġemergency": 5849,
      "Get": 5850,
      "Sc": 5851,
      "TM": 5852,
      "Well": 5853,
      "you": 5854,
      "Ġiron": 5855,
      "Ġnurs": 5856,
      "ĠTime": 5857,
      "ĠPoint": 5858,
      "ĠBoth": 5859,
      "Ġpray": 5860,
      "Ġrow": 5861,
      "Ġmonit": 5862,
      "Ġphotograp": 5863,
      "Ġfoods": 5864,
      "Ġcells": 5865,
      "ĠSupport": 5866,
      "Set": 5867,
      "Ġsoul": 5868,
      "ications": 5869,
      "roph": 5870,
      "ĠTable": 5871,
      "ĠMiss": 5872,
      "Ġapparent": 5873,
      "ĠYOU": 5874,
      "oga": 5875,
      "aked": 5876,
      "Ġspeaking": 5877,
      "Ġraise": 5878,
      "Ġcarried": 5879,
      "ĠProte": 5880,
      "Ġbigger": 5881,
      "Ġholds": 5882,
      "Ġhappening": 5883,
      "Ġperspective": 5884,
      "ĠDistrict": 5885,
      "BA": 5886,
      "Che": 5887,
      "Can": 5888,
      "ki": 5889,
      "orry": 5890,
      "Ġped": 5891,
      "Ġforg": 5892,
      "ĠWestern": 5893,
      "Ġatmosp": 5894,
      "ĠDuring": 5895,
      "Ġplug": 5896,
      "ĠON": 5897,
      "Ġappeared": 5898,
      "weight": 5899,
      "ĠWho": 5900,
      "Ġcreation": 5901,
      "ĠPlus": 5902,
      "Ġparticipants": 5903,
      "Ġseemed": 5904,
      "Ġconcerned": 5905,
      "urban": 5906,
      "Ġreplacement": 5907,
      "Ġrevealed": 5908,
      "Ġinstructions": 5909,
      "Are": 5910,
      "Ind": 5911,
      "Le": 5912,
      "Many": 5913,
      "OD": 5914,
      "aid": 5915,
      "pass": 5916,
      "paper": 5917,
      "Ġtank": 5918,
      "Ġturning": 5919,
      "eration": 5920,
      "orable": 5921,
      "Ġnom": 5922,
      "Ġaspect": 5923,
      "ulous": 5924,
      "ĠLong": 5925,
      "ĠNat": 5926,
      "odies": 5927,
      "berry": 5928,
      "ĠVirgin": 5929,
      "phas": 5930,
      "Ġminor": 5931,
      "ĠAndroid": 5932,
      "dered": 5933,
      "Ġhealthcare": 5934,
      "Ġhardware": 5935,
      "ĠResume": 5936,
      "Ġmixed": 5937,
      "Ġconducted": 5938,
      "Ġmanufacturers": 5939,
      "Ġflexible": 5940,
      "Pre": 5941,
      "ba": 5942,
      "nic": 5943,
      "Ġsister": 5944,
      "Ġcart": 5945,
      "ĠMel": 5946,
      "ĠHand": 5947,
      "Ġnotes": 5948,
      "ĠNov": 5949,
      "Ġwheel": 5950,
      "uality": 5951,
      "Ġrestrict": 5952,
      "ĠLead": 5953,
      "Ġfactor": 5954,
      "Ġcrim": 5955,
      "lusion": 5956,
      "Ġimplementation": 5957,
      "ĠJapanese": 5958,
      "Ġmountain": 5959,
      "Ġmoist": 5960,
      "ĠLouis": 5961,
      "oil": 5962,
      "west": 5963,
      "Ġsizes": 5964,
      "oration": 5965,
      "Ġlibrary": 5966,
      "Ġstunning": 5967,
      "Ġath": 5968,
      "ĠDou": 5969,
      "Ġsequ": 5970,
      "ĠGame": 5971,
      "acks": 5972,
      "Ġapps": 5973,
      "Ġremaining": 5974,
      "Ġauthentic": 5975,
      "Ġcauses": 5976,
      "ĠConference": 5977,
      "Ġdraft": 5978,
      "Ġarrived": 5979,
      "idden": 5980,
      "Ġaccepted": 5981,
      "ĠMinister": 5982,
      "Ġinspiration": 5983,
      "orgeous": 5984,
      "Ġaffili": 5985,
      "ĠMusic": 5986,
      "but": 5987,
      "ii": 5988,
      "iot": 5989,
      "ror": 5990,
      "oured": 5991,
      "Ġease": 5992,
      "ĠIre": 5993,
      "ĠTest": 5994,
      "uration": 5995,
      "Ġalle": 5996,
      "ĠBig": 5997,
      "cked": 5998,
      "ĠFurther": 5999,
      "ĠNOT": 6000,
      "Ġunivers": 6001,
      "Ġspa": 6002,
      "Ġindex": 6003,
      "Ġconfirm": 6004,
      "Ġdefense": 6005,
      "Ġtreated": 6006,
      "ĠGeorge": 6007,
      "Ġnormally": 6008,
      "ĠTwitter": 6009,
      "Ġduty": 6010,
      "48": 6011,
      "55": 6012,
      "rich": 6013,
      "she": 6014,
      "Ġther": 6015,
      "Ġpure": 6016,
      "racts": 6017,
      "ideo": 6018,
      "Ġtrained": 6019,
      "Ġbuyers": 6020,
      "ographic": 6021,
      "appy": 6022,
      "Ġsearching": 6023,
      "ìĿĺ": 6024,
      "Ġaccurate": 6025,
      "Ġincorpor": 6026,
      "Ġattorney": 6027,
      "66": 6028,
      "Ste": 6029,
      "iate": 6030,
      "wo": 6031,
      "Ġtaught": 6032,
      "Ġsides": 6033,
      "Ġwet": 6034,
      "ora": 6035,
      "Ġlit": 6036,
      "oof": 6037,
      "ĠHam": 6038,
      "ĠLab": 6039,
      "ĠList": 6040,
      "Ġresol": 6041,
      "Ġagents": 6042,
      "Ġmining": 6043,
      "ĠProject": 6044,
      "Ġsigned": 6045,
      "Ġtopics": 6046,
      "ĠTherefore": 6047,
      "Ġengage": 6048,
      "Ġrecorded": 6049,
      "Ġpainting": 6050,
      "Ġchoosing": 6051,
      "Ġengineering": 6052,
      "____": 6053,
      "Ġsubstant": 6054,
      "Ġpremium": 6055,
      "Ġsustainable": 6056,
      "App": 6057,
      "UN": 6058,
      "cd": 6059,
      "ëĭ": 6060,
      "Ġtough": 6061,
      "erts": 6062,
      "Ġpun": 6063,
      "Ġmouth": 6064,
      "Ġthread": 6065,
      "Ġyesterday": 6066,
      "ĠIC": 6067,
      "ĠSen": 6068,
      "ĠCert": 6069,
      "cket": 6070,
      "ĠHaw": 6071,
      "Ġcontemporary": 6072,
      "Ġuns": 6073,
      "Ġcommand": 6074,
      "bsite": 6075,
      "Ġbroken": 6076,
      "ĠParty": 6077,
      "Ġlifestyle": 6078,
      "working": 6079,
      "Ġconduct": 6080,
      "Ġstyles": 6081,
      "??": 6082,
      "Bu": 6083,
      "OC": 6084,
      "unting": 6085,
      "Ġvir": 6086,
      "Ġspr": 6087,
      "ĠItalian": 6088,
      "Ġrecru": 6089,
      "ĠStand": 6090,
      "Ġservers": 6091,
      "Ġgenerate": 6092,
      "Ġpossibility": 6093,
      "Ġconfir": 6094,
      "Ġhumans": 6095,
      "Ġimprovement": 6096,
      "Ġìŀ": 6097,
      "Ġeleg": 6098,
      "Ġawareness": 6099,
      "Ġframework": 6100,
      "Ġcircumst": 6101,
      "08": 6102,
      "First": 6103,
      "aj": 6104,
      "fortunately": 6105,
      "athe": 6106,
      "isher": 6107,
      "aration": 6108,
      "roy": 6109,
      "ownt": 6110,
      "Ġchain": 6111,
      "Ġju": 6112,
      "Ġoutstanding": 6113,
      "Ġentr": 6114,
      "Ġbooking": 6115,
      "Ġrecognized": 6116,
      "Ġdegrees": 6117,
      "Ġpartnership": 6118,
      "Ġcycle": 6119,
      "Ġfavourite": 6120,
      "46": 6121,
      "ae": 6122,
      "lam": 6123,
      "law": 6124,
      "worth": 6125,
      "Ġ@": 6126,
      "ĠSP": 6127,
      "ĠMer": 6128,
      "ĠBas": 6129,
      "ĠBur": 6130,
      "ĠBill": 6131,
      "Ġchat": 6132,
      "Ġplate": 6133,
      "eller": 6134,
      "Ġpermission": 6135,
      "Ġrot": 6136,
      "ints": 6137,
      "orders": 6138,
      "ĠDef": 6139,
      "Ġfeatured": 6140,
      "Ġaccessible": 6141,
      "Ġfacing": 6142,
      "ĠAtt": 6143,
      "Ġcasino": 6144,
      "Ġemotional": 6145,
      "Ġexclusive": 6146,
      "iology": 6147,
      "ria": 6148,
      "onto": 6149,
      "Ġcop": 6150,
      "Ġdiverse": 6151,
      "uts": 6152,
      "ĠSk": 6153,
      "ushed": 6154,
      "sem": 6155,
      "ĠPerson": 6156,
      "ĠDig": 6157,
      "ĠFarm": 6158,
      "Ġmail": 6159,
      "achel": 6160,
      "ĠChicago": 6161,
      "Ġemphas": 6162,
      "Ġinformed": 6163,
      "Ġtransl": 6164,
      "Ġresulting": 6165,
      "Ġdistrict": 6166,
      "Ġinvestors": 6167,
      "Ġlapt": 6168,
      "Ġidentified": 6169,
      "ĠAcadem": 6170,
      "Ġscheduled": 6171,
      "Ġinfrastructure": 6172,
      "**": 6173,
      "case": 6174,
      "iors": 6175,
      "tle": 6176,
      "Ġtiss": 6177,
      "ano": 6178,
      "Ġdump": 6179,
      "Ġstri": 6180,
      "ĠMuseum": 6181,
      "ĠPM": 6182,
      "ĠLim": 6183,
      "ially": 6184,
      "ella": 6185,
      "Ġuniversity": 6186,
      "anged": 6187,
      "Ġregul": 6188,
      "Ġintellig": 6189,
      "ĠInstagram": 6190,
      "proof": 6191,
      "Ġmanufacturing": 6192,
      "related": 6193,
      "SR": 6194,
      "Ġsac": 6195,
      "Ġcos": 6196,
      "astern": 6197,
      "eling": 6198,
      "ĠMP": 6199,
      "Ġassemb": 6200,
      "ĠBack": 6201,
      "Ġconvey": 6202,
      "Ġshock": 6203,
      "Ġchief": 6204,
      "udi": 6205,
      "ĠThrough": 6206,
      "ĠAriz": 6207,
      "ĠAdmin": 6208,
      "Ġhousehold": 6209,
      "Ġreplaced": 6210,
      "Ġessay": 6211,
      "Ġdetermined": 6212,
      "ĠSecurity": 6213,
      "Ġillustr": 6214,
      "Ġrental": 6215,
      "ĠTwo": 6216,
      "Ġphotography": 6217,
      "Ġclinical": 6218,
      "Ġincredible": 6219,
      "ĠCongress": 6220,
      "ĠIreland": 6221,
      "32": 6222,
      "writ": 6223,
      "Ġcooper": 6224,
      "ĠSC": 6225,
      "olid": 6226,
      "rag": 6227,
      "race": 6228,
      "ĠAL": 6229,
      "Ġstre": 6230,
      "ĠWil": 6231,
      "ĠDet": 6232,
      "Ġvital": 6233,
      "Ġshirts": 6234,
      "ĠExt": 6235,
      "Ġresidential": 6236,
      "ĠKit": 6237,
      "Ġsupposed": 6238,
      "ĠHeart": 6239,
      "Ġregulations": 6240,
      "Ġcheese": 6241,
      "Ġboat": 6242,
      "Ġmainly": 6243,
      "Ġfacilit": 6244,
      "ĠEnter": 6245,
      "ĠGeorg": 6246,
      "Ġrecommendations": 6247,
      "ĠSmall": 6248,
      "Ġdomestic": 6249,
      "Ġcandidate": 6250,
      "ca": 6251,
      "han": 6252,
      "sm": 6253,
      "Ġtor": 6254,
      "Ġsin": 6255,
      "Ġwarn": 6256,
      "itis": 6257,
      "Ġfro": 6258,
      "acific": 6259,
      "Ġupgrade": 6260,
      "Ġworldwide": 6261,
      "Ġexpression": 6262,
      "Ġorganized": 6263,
      "Ġfourth": 6264,
      "Ġmoments": 6265,
      "ĠContact": 6266,
      "ĠSteel": 6267,
      "ĠAustralian": 6268,
      "Ġdangerous": 6269,
      "folio": 6270,
      "gas": 6271,
      "Ġsaving": 6272,
      "Ġcute": 6273,
      "Ġmel": 6274,
      "Ġliqu": 6275,
      "ĠIr": 6276,
      "Ġproof": 6277,
      "Ġwealth": 6278,
      "ĠWay": 6279,
      "Ġdeck": 6280,
      "Ġrom": 6281,
      "Ġrough": 6282,
      "Ġcontribute": 6283,
      "ĠVict": 6284,
      "Ġenth": 6285,
      "Ġadvoc": 6286,
      "Ġsupports": 6287,
      "Ġtechnique": 6288,
      "Ġorganic": 6289,
      "Ġreceiving": 6290,
      "Ġimproving": 6291,
      "Ġreturns": 6292,
      "Ġforest": 6293,
      "Ġhyp": 6294,
      "Ġcelebrate": 6295,
      "Ġinstitutions": 6296,
      "Cont": 6297,
      "ĠÃ": 6298,
      "arks": 6299,
      "abled": 6300,
      "ĠFestival": 6301,
      "Ġdepend": 6302,
      "ĠEconom": 6303,
      "Ġplays": 6304,
      "ĠOffic": 6305,
      "Ġcontrast": 6306,
      "ĠWebsite": 6307,
      "Ġsuppliers": 6308,
      "Ġ197": 6309,
      "lands": 6310,
      "ĠSea": 6311,
      "Ġcharged": 6312,
      "Ġincreases": 6313,
      "Ġsalt": 6314,
      "Ġelig": 6315,
      "Ġprompt": 6316,
      "Ġtruck": 6317,
      "Ġbask": 6318,
      "Ġmarried": 6319,
      "ospit": 6320,
      "Ġclosely": 6321,
      "ĠSecret": 6322,
      "Ġdestination": 6323,
      "Ġadministration": 6324,
      "Ġinnovation": 6325,
      "Ġgraduate": 6326,
      "Ġsurprise": 6327,
      "prene": 6328,
      "ĠAccording": 6329,
      "ĠMexico": 6330,
      "Ġfemale": 6331,
      "Let": 6332,
      "rum": 6333,
      "ye": 6334,
      "inse": 6335,
      "Ġlib": 6336,
      "Ġnine": 6337,
      "ĠMike": 6338,
      "ĠMont": 6339,
      "ĠHuman": 6340,
      "Ġshoes": 6341,
      "nect": 6342,
      "ĠItaly": 6343,
      "Ġvisited": 6344,
      "Ġcrew": 6345,
      "Ġbless": 6346,
      "Ġretire": 6347,
      "Ġhandling": 6348,
      "Ġstanding": 6349,
      "ĠInstead": 6350,
      "Ġentertainment": 6351,
      "âĢĭâĢĭ": 6352,
      "Ġscholars": 6353,
      "made": 6354,
      "ounder": 6355,
      "Ġpod": 6356,
      "Ġhur": 6357,
      "Ġends": 6358,
      "ĠCe": 6359,
      "eline": 6360,
      "Ġwearing": 6361,
      "ĠWomen": 6362,
      "ĠLu": 6363,
      "ĠNorthern": 6364,
      "Ġsauce": 6365,
      "Ġdiscovered": 6366,
      "Ġbelief": 6367,
      "ĠScot": 6368,
      "Another": 6369,
      "Ġcommunications": 6370,
      "Ġelev": 6371,
      "Ġboxes": 6372,
      "Ġspeakers": 6373,
      "Ġaffected": 6374,
      "Ġfixed": 6375,
      "Ġsusp": 6376,
      "Ġsavings": 6377,
      "Ġdollars": 6378,
      "Ġcandidates": 6379,
      "ĠMountain": 6380,
      "Ġlucky": 6381,
      "Ġreligious": 6382,
      "Ġreputation": 6383,
      "According": 6384,
      "pret": 6385,
      "ìĹ": 6386,
      "ndom": 6387,
      "ena": 6388,
      "Ġbattle": 6389,
      "arrow": 6390,
      "Ġthin": 6391,
      "ĠAP": 6392,
      "ĠArab": 6393,
      "cknow": 6394,
      "Ġvent": 6395,
      "Ġwash": 6396,
      "ĠLand": 6397,
      "Ġchose": 6398,
      "ĠNote": 6399,
      "izz": 6400,
      "Ġcommission": 6401,
      "Ġadds": 6402,
      "Ġdelay": 6403,
      "ployment": 6404,
      "ĠCentre": 6405,
      "Ġbenefic": 6406,
      "Ġwriter": 6407,
      "Ġinvolves": 6408,
      "Ġguidelines": 6409,
      "Ġvillage": 6410,
      "Ġdistinct": 6411,
      "rid": 6412,
      "wing": 6413,
      "Ġtab": 6414,
      "Ġcaught": 6415,
      "itled": 6416,
      "Ġblow": 6417,
      "stone": 6418,
      "igration": 6419,
      "Ġstopped": 6420,
      "Ġprove": 6421,
      "Ġconv": 6422,
      "quir": 6423,
      "Ġvul": 6424,
      "Ġchicken": 6425,
      "osoph": 6426,
      "ĠEarth": 6427,
      "asts": 6428,
      "ĠJones": 6429,
      "alend": 6430,
      "Ġperforming": 6431,
      "Ġdefault": 6432,
      "ĠBefore": 6433,
      "Ġmovies": 6434,
      "Ġexpectations": 6435,
      "Ġcontrols": 6436,
      "Ġoriginally": 6437,
      "ĠMaybe": 6438,
      "Ġtalent": 6439,
      "Ġmachines": 6440,
      "nament": 6441,
      "Ġbottle": 6442,
      "Ġviolence": 6443,
      "ĠTechnology": 6444,
      "Ġepis": 6445,
      "Ġimagine": 6446,
      "ampionship": 6447,
      "itamin": 6448,
      "MA": 6449,
      "Ġpin": 6450,
      "ĠCEO": 6451,
      "Ġalcohol": 6452,
      "ĠWhere": 6453,
      "ĠFord": 6454,
      "Ġvast": 6455,
      "Ġchair": 6456,
      "ipl": 6457,
      "Ġkm": 6458,
      "Ġkilled": 6459,
      "ĠView": 6460,
      "Ġinteg": 6461,
      "Ġequal": 6462,
      "Ġcapabilities": 6463,
      "ĠSpanish": 6464,
      "Ġparam": 6465,
      "Ġtrends": 6466,
      "Ġdealing": 6467,
      "Ġdiscussed": 6468,
      "Ġcollected": 6469,
      "Ġimmediate": 6470,
      "Have": 6471,
      "Man": 6472,
      "yers": 6473,
      "Ġbags": 6474,
      "ingly": 6475,
      "Ġdust": 6476,
      "ican": 6477,
      "omy": 6478,
      "Ġyellow": 6479,
      "ĠLin": 6480,
      "ĠOper": 6481,
      "Ġcompr": 6482,
      "active": 6483,
      "Ġrandom": 6484,
      "Ġinterface": 6485,
      "Ġpasseng": 6486,
      "Ġspecialist": 6487,
      "ĠSoft": 6488,
      "Ġconfident": 6489,
      "Ġvend": 6490,
      "Ġapplicable": 6491,
      "Ġanticip": 6492,
      "Ġhonor": 6493,
      "Ġremoval": 6494,
      "Ġstrategic": 6495,
      "Ġsettings": 6496,
      "Ġproposed": 6497,
      "Ġmortgage": 6498,
      "Ġcomplicated": 6499,
      "Ġcrowd": 6500,
      "ĠCarolina": 6501,
      "count": 6502,
      "rian": 6503,
      "inter": 6504,
      "reprene": 6505,
      "Ġbear": 6506,
      "Ġstake": 6507,
      "ĠDUI": 6508,
      "ivate": 6509,
      "ĠNav": 6510,
      "ĠOS": 6511,
      "ears": 6512,
      "Ġmanual": 6513,
      "Ġtrig": 6514,
      "obe": 6515,
      "Ġentered": 6516,
      "Ġmonitor": 6517,
      "Ġmatters": 6518,
      "!!!!": 6519,
      "ĠAdv": 6520,
      "Ġreporting": 6521,
      "Ġportion": 6522,
      "Ġrepresents": 6523,
      "Ġauthorities": 6524,
      "Ġentirely": 6525,
      "Ġroutine": 6526,
      "Ġcookies": 6527,
      "ĠSecond": 6528,
      "Ġcopyright": 6529,
      "ĠParis": 6530,
      "Ġdepth": 6531,
      "Ġappointment": 6532,
      "respond": 6533,
      "bar": 6534,
      "ugh": 6535,
      "Ġcodes": 6536,
      "Ġfir": 6537,
      "Ġfif": 6538,
      "ĠTO": 6539,
      "ĠSaf": 6540,
      "ĠSky": 6541,
      "ellect": 6542,
      "ĠPass": 6543,
      "Ġexceed": 6544,
      "isters": 6545,
      "Ġupper": 6546,
      "Ġclothing": 6547,
      "Ġpricing": 6548,
      "Ġ48": 6549,
      "comes": 6550,
      "Ġformed": 6551,
      "ĠLeague": 6552,
      "Ġclassroom": 6553,
      "coin": 6554,
      "Ġinvolve": 6555,
      "Ġlabel": 6556,
      "Ġliability": 6557,
      "Ġprinciples": 6558,
      "Ġobvious": 6559,
      "CC": 6560,
      "RS": 6561,
      "Ġ=": 6562,
      "Ġacknow": 6563,
      "Ġtom": 6564,
      "Ġlosing": 6565,
      "Ġrear": 6566,
      "ĠBud": 6567,
      "Ġsufficient": 6568,
      "Ġusual": 6569,
      "Ġcompens": 6570,
      "Ġenables": 6571,
      "Ġclothes": 6572,
      "Ġ36": 6573,
      "ĠStr": 6574,
      "anger": 6575,
      "merce": 6576,
      "Ġexpans": 6577,
      "Ġauthors": 6578,
      "Ġ2004": 6579,
      "ĠOnly": 6580,
      "Ġlighting": 6581,
      "Ġcreates": 6582,
      "Ġemails": 6583,
      "Ġtypical": 6584,
      "Ġdamages": 6585,
      "Ġanswers": 6586,
      "Ġinjuries": 6587,
      "Ġatmosphere": 6588,
      "39": 6589,
      "iat": 6590,
      "âĦ": 6591,
      "ita": 6592,
      "Ġmic": 6593,
      "Ġnone": 6594,
      "Ġgifts": 6595,
      "Ġgorgeous": 6596,
      "Ġongoing": 6597,
      "idal": 6598,
      "idays": 6599,
      "Ġexcess": 6600,
      "ĠDen": 6601,
      "Ġunlike": 6602,
      "Ġserves": 6603,
      "ĠYouT": 6604,
      "Ġsky": 6605,
      "Ġgrass": 6606,
      "Ġexplained": 6607,
      "Ġairport": 6608,
      "Ġprotected": 6609,
      "ĠComput": 6610,
      "Ġmanagers": 6611,
      "Ġrequests": 6612,
      "Ġpicked": 6613,
      "BM": 6614,
      "OV": 6615,
      "site": 6616,
      "Ã¤": 6617,
      "Ġawards": 6618,
      "Ġhood": 6619,
      "Ġreb": 6620,
      "ĠTim": 6621,
      "ĠTour": 6622,
      "ĠSet": 6623,
      "igen": 6624,
      "elcome": 6625,
      "ersey": 6626,
      "Ġsevere": 6627,
      "ĠField": 6628,
      "Ġriver": 6629,
      "Ġmeals": 6630,
      "ĠUl": 6631,
      "Ġroot": 6632,
      "amps": 6633,
      "Ġsubsequ": 6634,
      "Ġboil": 6635,
      "Ġequipped": 6636,
      "Ġelectrical": 6637,
      "ĠRoom": 6638,
      "Ġlayer": 6639,
      "Ġscientific": 6640,
      "ĠDivision": 6641,
      "Ġcircumstances": 6642,
      "ĠArizona": 6643,
      "dr": 6644,
      "Ġicon": 6645,
      "esides": 6646,
      "Ġfellow": 6647,
      "Ġfort": 6648,
      "ĠTown": 6649,
      "ĠBob": 6650,
      "ĠNY": 6651,
      "iece": 6652,
      "Ġcompare": 6653,
      "Ġkick": 6654,
      "Ġoffices": 6655,
      "ocated": 6656,
      "Ġ196": 6657,
      "Ġpersonally": 6658,
      "Ġexposure": 6659,
      "Ġtransition": 6660,
      "Ġletters": 6661,
      "Ġpoly": 6662,
      "Ġensuring": 6663,
      "Ġarrive": 6664,
      "Ġtells": 6665,
      "Ġabsor": 6666,
      "Ġcloser": 6667,
      "Ġadvantages": 6668,
      "Ġconsistent": 6669,
      "Ġobjective": 6670,
      "Ġphotographs": 6671,
      "ĠKingdom": 6672,
      "Ġvegetables": 6673,
      "Ġbonus": 6674,
      "85": 6675,
      "More": 6676,
      "ta": 6677,
      "Ġí": 6678,
      "Ġpil": 6679,
      "Ġmixture": 6680,
      "ication": 6681,
      "Ġgallery": 6682,
      "ĠTre": 6683,
      "ĠTur": 6684,
      "ĠTax": 6685,
      "ĠSign": 6686,
      "Ġstated": 6687,
      "Ġextended": 6688,
      "ĠHospital": 6689,
      "ĠLast": 6690,
      "ĠGen": 6691,
      "ĠThose": 6692,
      "ĠChildren": 6693,
      "ĠDev": 6694,
      "Ġ75": 6695,
      "ĠManager": 6696,
      "Ġstored": 6697,
      "ĠTraining": 6698,
      "Ġmanaging": 6699,
      "ìĿ´": 6700,
      "Ġdomain": 6701,
      "ĠAuthor": 6702,
      "Ġerrors": 6703,
      "Ġdrugs": 6704,
      "Ġearned": 6705,
      "ĠInte": 6706,
      "Ġbrowser": 6707,
      "42": 6708,
      "reens": 6709,
      "Ġsan": 6710,
      "asher": 6711,
      "Ġgrew": 6712,
      "celer": 6713,
      "Ġaside": 6714,
      "osite": 6715,
      "Ġlease": 6716,
      "ĠOpt": 6717,
      "Ġupgra": 6718,
      "Ġresort": 6719,
      "ĠCharl": 6720,
      "Ġherself": 6721,
      "Ġskilled": 6722,
      "Ġgrade": 6723,
      "Ġtested": 6724,
      "ĠKey": 6725,
      "Ġattractive": 6726,
      "Ġdepends": 6727,
      "Ġgraphics": 6728,
      "ĠGlobal": 6729,
      "Ġpermanent": 6730,
      "Ġweapons": 6731,
      "Ġconfirmed": 6732,
      "FL": 6733,
      "HA": 6734,
      "Yes": 6735,
      "ait": 6736,
      "bre": 6737,
      "oh": 6738,
      "Ġurban": 6739,
      "real": 6740,
      "Ġtherap": 6741,
      "Ġodd": 6742,
      "Ġbub": 6743,
      "rage": 6744,
      "ĠDi": 6745,
      "ĠFed": 6746,
      "Ġshift": 6747,
      "Ġcompliance": 6748,
      "ĠChi": 6749,
      "luded": 6750,
      "ĠBlu": 6751,
      "Ġcampus": 6752,
      "Ġsuperior": 6753,
      "Ġfitness": 6754,
      "Ġsilver": 6755,
      "Ġindeed": 6756,
      "Ġbreath": 6757,
      "ĠClean": 6758,
      "ras": 6759,
      "Ġol": 6760,
      "orter": 6761,
      "Ġbare": 6762,
      "Ġmut": 6763,
      "asant": 6764,
      "othe": 6765,
      "ĠCond": 6766,
      "Ġstir": 6767,
      "alled": 6768,
      "Ġworse": 6769,
      "ĠOR": 6770,
      "ĠUk": 6771,
      "ailable": 6772,
      "ĠChief": 6773,
      "anges": 6774,
      "Ġreaders": 6775,
      "Ġposting": 6776,
      "Ġveter": 6777,
      "Ġengagement": 6778,
      "ossible": 6779,
      "ĠiPh": 6780,
      "Ġconstant": 6781,
      "ĠPrice": 6782,
      "Ġfailed": 6783,
      "Ġcommunicate": 6784,
      "Ġmissed": 6785,
      "Ġcrucial": 6786,
      "Ġchannels": 6787,
      "Ġdynamic": 6788,
      "Ġenthus": 6789,
      "uine": 6790,
      "erate": 6791,
      "Ġwest": 6792,
      "ĠSqu": 6793,
      "Ġattended": 6794,
      "ĠHaving": 6795,
      "that": 6796,
      "Ġusage": 6797,
      "Ġshops": 6798,
      "ello": 6799,
      "ellite": 6800,
      "Ġteeth": 6801,
      "ĠKore": 6802,
      "iano": 6803,
      "Ġmini": 6804,
      "ĠProv": 6805,
      "Ġextract": 6806,
      "Ġpayments": 6807,
      "Ġconcrete": 6808,
      "Ġdefined": 6809,
      "Ġindustries": 6810,
      "ĠSpirit": 6811,
      "Ġmarks": 6812,
      "Ġblend": 6813,
      "Ġcollaboration": 6814,
      "Ġaccomplish": 6815,
      "ĠMachine": 6816,
      "ĠVictor": 6817,
      "âĦ¢": 6818,
      "Data": 6819,
      "Qu": 6820,
      "ns": 6821,
      "Ġinfect": 6822,
      "lete": 6823,
      "Ġnative": 6824,
      "ĠSales": 6825,
      "Ġneut": 6826,
      "asters": 6827,
      "ĠInvest": 6828,
      "ĠVery": 6829,
      "Ġdesired": 6830,
      "Ġrelative": 6831,
      "Ġavailability": 6832,
      "Ġeditor": 6833,
      "Ġcorrespond": 6834,
      "poration": 6835,
      "Ġwinner": 6836,
      "Ġbehalf": 6837,
      "Ġidentity": 6838,
      "Ġchallenging": 6839,
      "Ġprecise": 6840,
      "Ġsatisfact": 6841,
      "missions": 6842,
      "Ġresearchers": 6843,
      "Ġstretch": 6844,
      "ĠCatholic": 6845,
      "Ġvulner": 6846,
      "BI": 6847,
      "EW": 6848,
      "Most": 6849,
      "cur": 6850,
      "ìĦ": 6851,
      "Ġtile": 6852,
      "Ġsick": 6853,
      "ilst": 6854,
      "Ġrein": 6855,
      "ĠMid": 6856,
      "secut": 6857,
      "ĠBul": 6858,
      "ĠHa": 6859,
      "ĠHope": 6860,
      "Ġdeeper": 6861,
      "Ġsoil": 6862,
      "Ġkits": 6863,
      "Ġarrest": 6864,
      "ĠChair": 6865,
      "Ġscr": 6866,
      "Ġsheets": 6867,
      "Ġauthority": 6868,
      "Ġwidely": 6869,
      "Although": 6870,
      "dden": 6871,
      "Ġjudge": 6872,
      "Ġexecutive": 6873,
      "ĠToronto": 6874,
      "ĠRoyal": 6875,
      "04": 6876,
      "Ġcats": 6877,
      "Ġpm": 6878,
      "Ġda": 6879,
      "Ġdental": 6880,
      "Ġhi": 6881,
      "Ġhat": 6882,
      "illy": 6883,
      "Ġeld": 6884,
      "Ġeast": 6885,
      "ĠCab": 6886,
      "ĠCreat": 6887,
      "uls": 6888,
      "Ġconver": 6889,
      "Ġseats": 6890,
      "ĠFun": 6891,
      "Ġvintage": 6892,
      "Ġrank": 6893,
      "aven": 6894,
      "Ġnewly": 6895,
      "Ġsupplement": 6896,
      "athy": 6897,
      "gged": 6898,
      "Ġpatch": 6899,
      "Ġgenerated": 6900,
      "Ġfeelings": 6901,
      "ĠAnother": 6902,
      "Ġweekly": 6903,
      "Ġtreatments": 6904,
      "ĠOrgan": 6905,
      "Ġpackages": 6906,
      "ĠRussia": 6907,
      "Ġspiritual": 6908,
      "ĠDemocr": 6909,
      "31": 6910,
      "?âĢĿ": 6911,
      "EF": 6912,
      "Ġtill": 6913,
      "Ġthorough": 6914,
      "Ġrely": 6915,
      "Ġgolf": 6916,
      "racy": 6917,
      "Ġstim": 6918,
      "ĠPan": 6919,
      "Ġhealing": 6920,
      "abet": 6921,
      "ĠDC": 6922,
      "Ġsudden": 6923,
      "ĠGallery": 6924,
      "ĠUsing": 6925,
      "Ġquote": 6926,
      "ificate": 6927,
      "Ġinvited": 6928,
      "Ġdesigners": 6929,
      "Ġflour": 6930,
      "Ġattached": 6931,
      "Ġsignal": 6932,
      "arsh": 6933,
      "Ġintellect": 6934,
      "Ġfacts": 6935,
      "Ġversions": 6936,
      "Ġportfolio": 6937,
      "Ġprinted": 6938,
      "ecutive": 6939,
      "ĠHotel": 6940,
      "Ġcrisis": 6941,
      "ĠConstruction": 6942,
      "Ġanxiety": 6943,
      "Ġmonitoring": 6944,
      "Ġathlet": 6945,
      "Hi": 6946,
      "TR": 6947,
      "vy": 6948,
      "Ġtheory": 6949,
      "Ġcable": 6950,
      "oup": 6951,
      "Ġborrow": 6952,
      "edia": 6953,
      "Ġmuseum": 6954,
      "icate": 6955,
      "ĠIll": 6956,
      "ĠPack": 6957,
      "ĠPeter": 6958,
      "gend": 6959,
      "ĠLow": 6960,
      "ĠLew": 6961,
      "Ġincident": 6962,
      "Ġeverywhere": 6963,
      "Ġrelief": 6964,
      "ĠRev": 6965,
      "Ġdiscip": 6966,
      "Ġskill": 6967,
      "Ġlistening": 6968,
      "Ġrecording": 6969,
      "Ġemployment": 6970,
      "Ġsuggested": 6971,
      "Ġapplying": 6972,
      "Ġguaranteed": 6973,
      "Ġcasual": 6974,
      "Ġmanufacturer": 6975,
      "Ġflavor": 6976,
      "Ġsaved": 6977,
      "Click": 6978,
      "Ġargument": 6979,
      "Ġfolks": 6980,
      "uminum": 6981,
      "ĠYouTube": 6982,
      "37": 6983,
      "47": 6984,
      "IF": 6985,
      "ME": 6986,
      "PC": 6987,
      "bb": 6988,
      "yard": 6989,
      "Ġoven": 6990,
      "itage": 6991,
      "oral": 6992,
      "Ġbaking": 6993,
      "Ġpip": 6994,
      "Ġpock": 6995,
      "iche": 6996,
      "ilig": 6997,
      "Ġgent": 6998,
      "oty": 6999,
      "ĠSearch": 7000,
      "Ġsending": 7001,
      "ĠFull": 7002,
      "Ġrating": 7003,
      "Ġcharm": 7004,
      "Ġnoticed": 7005,
      "redit": 7006,
      "Ġunable": 7007,
      "ĠVill": 7008,
      "Ġproven": 7009,
      "ĠHead": 7010,
      "azz": 7011,
      "Ġformal": 7012,
      "Ġlists": 7013,
      "Ġfounded": 7014,
      "Ġpublish": 7015,
      "ĠControl": 7016,
      "profit": 7017,
      "Ġobserved": 7018,
      "Ġinteractive": 7019,
      "Ġhistoric": 7020,
      "html": 7021,
      "Ġbench": 7022,
      "ĠAcademy": 7023,
      "Ġtomorrow": 7024,
      "!\"": 7025,
      "Int": 7026,
      "Of": 7027,
      "].": 7028,
      "gers": 7029,
      "hire": 7030,
      "ko": 7031,
      "mo": 7032,
      "ëĬ": 7033,
      "ĠâĤ¬": 7034,
      "Ġocean": 7035,
      "Ġbat": 7036,
      "Ġbone": 7037,
      "Ġham": 7038,
      "Ġhiring": 7039,
      "Ġnorthern": 7040,
      "Ġnarrow": 7041,
      "ĠTimes": 7042,
      "igan": 7043,
      "ĠFund": 7044,
      "Ġsomewhat": 7045,
      "Ġdiss": 7046,
      "Ġagricult": 7047,
      "ĠStart": 7048,
      "Ġtrick": 7049,
      "Ġscript": 7050,
      "Ġassum": 7051,
      "nergy": 7052,
      "Ġpassing": 7053,
      "ĠZeal": 7054,
      "including": 7055,
      "Ġpreparation": 7056,
      "Ġofficer": 7057,
      "ĠDoes": 7058,
      "Ġrequested": 7059,
      "Ġroads": 7060,
      "ĠReport": 7061,
      "Ġgenetic": 7062,
      "Ġmassage": 7063,
      "REE": 7064,
      "Ġassigned": 7065,
      "ĠSystems": 7066,
      "Ġtransaction": 7067,
      "ĠAngeles": 7068,
      "ĠThomas": 7069,
      "ĠFamily": 7070,
      "Ġcriminal": 7071,
      "Im": 7072,
      "UL": 7073,
      "bration": 7074,
      "dney": 7075,
      "Ġera": 7076,
      "Ġsoph": 7077,
      "Ġok": 7078,
      "alse": 7079,
      "stream": 7080,
      "Ġgear": 7081,
      "uten": 7082,
      "irty": 7083,
      "ifies": 7084,
      "Ġsuc": 7085,
      "ĠRoman": 7086,
      "Ġchips": 7087,
      "oston": 7088,
      "ensity": 7089,
      "rency": 7090,
      "Ġsyn": 7091,
      "Ġmatches": 7092,
      "tense": 7093,
      "ĠClient": 7094,
      "Ġextent": 7095,
      "Ġrealized": 7096,
      "ĠPlace": 7097,
      "Ġfaculty": 7098,
      "Ġdiam": 7099,
      "Ġtelling": 7100,
      "Ġnearby": 7101,
      "holder": 7102,
      "ĠSmith": 7103,
      "Ġscheme": 7104,
      "Ġmedicine": 7105,
      "Ġresistance": 7106,
      "Ġfleet": 7107,
      "ĠZealand": 7108,
      "Today": 7109,
      "laim": 7110,
      "lights": 7111,
      "Ġacts": 7112,
      "Ġpill": 7113,
      "Ġhospit": 7114,
      "ura": 7115,
      "ĠSU": 7116,
      "ĠCre": 7117,
      "ĠCup": 7118,
      "ading": 7119,
      "ĠMass": 7120,
      "ĠPin": 7121,
      "ĠPacific": 7122,
      "Ġheight": 7123,
      "ĠFair": 7124,
      "ĠLy": 7125,
      "ĠLas": 7126,
      "Ġcompat": 7127,
      "Then": 7128,
      "Ġouts": 7129,
      "ĠThus": 7130,
      "Ġclar": 7131,
      "Ġtravell": 7132,
      "Ġraw": 7133,
      "rior": 7134,
      "Ġtransp": 7135,
      "Ġreducing": 7136,
      "ĠCoast": 7137,
      "Ġpanels": 7138,
      "Ġmagic": 7139,
      "Ġsuggestions": 7140,
      "Ġgenuine": 7141,
      "Ġcertified": 7142,
      "Ġobtained": 7143,
      "Ġcategories": 7144,
      "Ġevaluation": 7145,
      "ĠAssist": 7146,
      "Ġworkshop": 7147,
      "ĠOhio": 7148,
      "Ġrubber": 7149,
      "ĠStock": 7150,
      "Ġphilosoph": 7151,
      "Ġinventory": 7152,
      "Ġbasket": 7153,
      "cers": 7154,
      "Ġ<": 7155,
      "Ġtut": 7156,
      "erning": 7157,
      "Ġbodies": 7158,
      "Ġdates": 7159,
      "asp": 7160,
      "Ġrenov": 7161,
      "ĠSEO": 7162,
      "ĠFollow": 7163,
      "ĠLibrary": 7164,
      "ums": 7165,
      "Ġwhenever": 7166,
      "duate": 7167,
      "Ġloans": 7168,
      "ĠVideo": 7169,
      "Ġremark": 7170,
      "Ġbrush": 7171,
      "Ġstring": 7172,
      "Ġseriously": 7173,
      "Ġengaged": 7174,
      "Ġnetworks": 7175,
      "Ġregardless": 7176,
      "Ġhyper": 7177,
      "Ġfunctionality": 7178,
      "Ġintroduction": 7179,
      "Ġprimarily": 7180,
      "Ġencouraged": 7181,
      "Ġcrazy": 7182,
      "Ġenterprise": 7183,
      "Ġdisplayed": 7184,
      "Ġsurprised": 7185,
      "Ġdispens": 7186,
      "Ġworkshops": 7187,
      "ĠVirginia": 7188,
      "49": 7189,
      "During": 7190,
      "Pe": 7191,
      "Press": 7192,
      "date": 7193,
      "host": 7194,
      "mun": 7195,
      "wear": 7196,
      "ygen": 7197,
      "Ġfasc": 7198,
      "isk": 7199,
      "Ġbars": 7200,
      "omin": 7201,
      "usal": 7202,
      "ĠCost": 7203,
      "Ġstations": 7204,
      "ĠPenn": 7205,
      "ĠBall": 7206,
      "Ġorange": 7207,
      "oses": 7208,
      "ĠEC": 7209,
      "ĠJon": 7210,
      "Ġcontents": 7211,
      "Ġcontained": 7212,
      "Ġclimb": 7213,
      "Ġtracks": 7214,
      "Ġ32": 7215,
      "ĠWeek": 7216,
      "riage": 7217,
      "ologist": 7218,
      "Ġsurf": 7219,
      "Ġextension": 7220,
      "Ġfaced": 7221,
      "Ġzone": 7222,
      "ĠPrem": 7223,
      "Ġultimately": 7224,
      "ĠClassic": 7225,
      "Ġdefend": 7226,
      "ëĬĶ": 7227,
      "Cor": 7228,
      "afe": 7229,
      "market": 7230,
      "Ġsad": 7231,
      "Ġforth": 7232,
      "ĠSup": 7233,
      "Ġstead": 7234,
      "Ġrid": 7235,
      "ache": 7236,
      "ĠUt": 7237,
      "Ġteen": 7238,
      "Ġevol": 7239,
      "Ġproducing": 7240,
      "Ġconsists": 7241,
      "Ġsynt": 7242,
      "Ġentitled": 7243,
      "Ġentreprene": 7244,
      "Ġinterpret": 7245,
      "ĠTele": 7246,
      "Ġchecking": 7247,
      "Ġmembership": 7248,
      "Ġ1990": 7249,
      "Ġexception": 7250,
      "Ġconcepts": 7251,
      "suit": 7252,
      "Ġpenal": 7253,
      "ĠSpring": 7254,
      "Ġlandscape": 7255,
      "friendly": 7256,
      "Ġfirms": 7257,
      "?\"": 7258,
      "DF": 7259,
      "Even": 7260,
      "Fr": 7261,
      "Great": 7262,
      "MP": 7263,
      "uous": 7264,
      "Ġsight": 7265,
      "Ġinch": 7266,
      "Ġliked": 7267,
      "ĠSO": 7268,
      "Ġstain": 7269,
      "amel": 7270,
      "ĠPub": 7271,
      "ĠBow": 7272,
      "ĠEr": 7273,
      "Ġdoctors": 7274,
      "Ġmeets": 7275,
      "Ġregions": 7276,
      "Ġfinds": 7277,
      "Ġdevelopers": 7278,
      "Ġstands": 7279,
      "Ġaccessories": 7280,
      "ENT": 7281,
      "Ġprinciple": 7282,
      "ĠRussian": 7283,
      "Ġcomponent": 7284,
      "Ġdollar": 7285,
      "Ġchannel": 7286,
      "Ġvessel": 7287,
      "Gu": 7288,
      "LA": 7289,
      "ìł": 7290,
      "Ġ>": 7291,
      "Ġ~": 7292,
      "Ġtiny": 7293,
      "rect": 7294,
      "Ġfo": 7295,
      "Ġreward": 7296,
      "rael": 7297,
      "ige": 7298,
      "ĠCr": 7299,
      "ĠAR": 7300,
      "ĠBal": 7301,
      "Ġhero": 7302,
      "Ġvibr": 7303,
      "agues": 7304,
      "Ġoutcome": 7305,
      "Ġcontest": 7306,
      "ruption": 7307,
      "ogue": 7308,
      "Ġprovision": 7309,
      "Ġcolours": 7310,
      "rame": 7311,
      "Ġflights": 7312,
      "Ġcareful": 7313,
      "Ġapproval": 7314,
      "Ġenjoying": 7315,
      "Ġnaturally": 7316,
      "Ġmillions": 7317,
      "Ġreduction": 7318,
      "Ġyounger": 7319,
      "ĠGuide": 7320,
      "Ġcorrectly": 7321,
      "Ġpromotion": 7322,
      "Ġvacation": 7323,
      "build": 7324,
      "Ġliterally": 7325,
      "Ġlegislation": 7326,
      "Ġlicensed": 7327,
      "Check": 7328,
      "Ġlaptop": 7329,
      "ĠGeorgia": 7330,
      "alendar": 7331,
      "Over": 7332,
      "cue": 7333,
      "ato": 7334,
      "eding": 7335,
      "Ġelection": 7336,
      "ady": 7337,
      "irlp": 7338,
      "ĠMult": 7339,
      "ĠPak": 7340,
      "ĠBrown": 7341,
      "Ġordered": 7342,
      "ĠLuc": 7343,
      "Ġdispl": 7344,
      "Ġtrib": 7345,
      "Ġunderst": 7346,
      "Ġguard": 7347,
      "Ġinsight": 7348,
      "athan": 7349,
      "ĠAndrew": 7350,
      "Ġlistings": 7351,
      "Ġedition": 7352,
      "ĠShare": 7353,
      "Ġ2002": 7354,
      "ĠExecutive": 7355,
      "Ġalongside": 7356,
      "Ġsolve": 7357,
      "Ġtracking": 7358,
      "ĠMedia": 7359,
      "ĠAgree": 7360,
      "ĠMcC": 7361,
      "Ġplatforms": 7362,
      "Ġfarmers": 7363,
      "Ġsubscrib": 7364,
      "Ġeligible": 7365,
      "ĠiPhone": 7366,
      "Bl": 7367,
      "CH": 7368,
      "va": 7369,
      "wa": 7370,
      "Ġintense": 7371,
      "Ġdess": 7372,
      "Ġdiversity": 7373,
      "Ġgained": 7374,
      "ĠCir": 7375,
      "ĠTheatre": 7376,
      "ĠDut": 7377,
      "ĠFo": 7378,
      "Ġinches": 7379,
      "Ġspir": 7380,
      "Ġsomewhere": 7381,
      "ĠKnow": 7382,
      "Ġphones": 7383,
      "Ġdecade": 7384,
      "Ġexposed": 7385,
      "Ġrefund": 7386,
      "ĠSpace": 7387,
      "Ġprotein": 7388,
      "Ġrecognize": 7389,
      "Ġobserv": 7390,
      "Ġinitially": 7391,
      "Ġultimate": 7392,
      "Ġassignment": 7393,
      "Ġcontrolled": 7394,
      "Ġsucceed": 7395,
      "EV": 7396,
      "isa": 7397,
      "isition": 7398,
      "Ġpink": 7399,
      "Ġmile": 7400,
      "Ġlift": 7401,
      "sters": 7402,
      "ĠSem": 7403,
      "ĠAccess": 7404,
      "Ġalive": 7405,
      "ĠMiddle": 7406,
      "ĠHen": 7407,
      "quality": 7408,
      "Ġrig": 7409,
      "Ġsharp": 7410,
      "uma": 7411,
      "odge": 7412,
      "Ġadm": 7413,
      "Ġloves": 7414,
      "Ġscope": 7415,
      "rently": 7416,
      "Ġtwe": 7417,
      "Ġsmile": 7418,
      "Ġguitar": 7419,
      "Ġfinest": 7420,
      "Ġexpressed": 7421,
      "Ġ2003": 7422,
      "ĠFranc": 7423,
      "Ġfeaturing": 7424,
      "ĠIndust": 7425,
      "ĠLee": 7426,
      "Ġfilms": 7427,
      "Ġheaded": 7428,
      "Ġstaying": 7429,
      "Ġcritic": 7430,
      "Ġroutes": 7431,
      "Ġlayers": 7432,
      "Ġfilling": 7433,
      "ĠPhilipp": 7434,
      "Ġincredibly": 7435,
      "Ġjewel": 7436,
      "Ġachieved": 7437,
      "ĠDigital": 7438,
      "irlpool": 7439,
      "38": 7440,
      "Or": 7441,
      "Where": 7442,
      "iu": 7443,
      "Ġbid": 7444,
      "arian": 7445,
      "Ġhurt": 7446,
      "ĠTips": 7447,
      "ĠCy": 7448,
      "amental": 7449,
      "Ġhaz": 7450,
      "ĠDie": 7451,
      "Ġvs": 7452,
      "oute": 7453,
      "earning": 7454,
      "Ġenem": 7455,
      "forter": 7456,
      "Ġspin": 7457,
      "Ġspots": 7458,
      "neys": 7459,
      "ĠKen": 7460,
      "rics": 7461,
      "Ġdifferences": 7462,
      "ĠPrime": 7463,
      "ĠJoe": 7464,
      "ĠPolice": 7465,
      "Ġmaintained": 7466,
      "Ġfault": 7467,
      "Also": 7468,
      "Ġexceptional": 7469,
      "Ġmarked": 7470,
      "Ġsurvive": 7471,
      "íķľ": 7472,
      "Ġarchitecture": 7473,
      "ĠHelp": 7474,
      "ĠMartin": 7475,
      "Ġelegant": 7476,
      "tr": 7477,
      "whel": 7478,
      "Ġ!": 7479,
      "Ġid": 7480,
      "Ġtall": 7481,
      "Ġore": 7482,
      "Ġbanks": 7483,
      "Ġmand": 7484,
      "ĠIA": 7485,
      "Ġforced": 7486,
      "ĠTerm": 7487,
      "ĠSouthern": 7488,
      "ĠCD": 7489,
      "Ġleague": 7490,
      "Ġads": 7491,
      "tocol": 7492,
      "Ġspeech": 7493,
      "Ġrecyc": 7494,
      "Ġ37": 7495,
      "ĠVen": 7496,
      "ĠStat": 7497,
      "Ġnoise": 7498,
      "Ġconsolid": 7499,
      "Ġracing": 7500,
      "Ġinspect": 7501,
      "plete": 7502,
      "Ġhotels": 7503,
      "anned": 7504,
      "Ġarray": 7505,
      "Ġarrival": 7506,
      "ĠApplic": 7507,
      "Ġcommonly": 7508,
      "Ġstructures": 7509,
      "Ġattacks": 7510,
      "Ġdescribe": 7511,
      "Ġtemperatures": 7512,
      "ĠConsult": 7513,
      "Ġcapture": 7514,
      "Ġtelevision": 7515,
      "Ġknock": 7516,
      "Ġdemonstrate": 7517,
      "Ġcontinuing": 7518,
      "remony": 7519,
      "ĠBuilding": 7520,
      "Ġconflict": 7521,
      "Ed": 7522,
      "VD": 7523,
      "bel": 7524,
      "iel": 7525,
      "pany": 7526,
      "oner": 7527,
      "Ġwave": 7528,
      "orous": 7529,
      "enced": 7530,
      "Ġtox": 7531,
      "Ġinner": 7532,
      "Ġhall": 7533,
      "Ġhang": 7534,
      "Ġhits": 7535,
      "stal": 7536,
      "rad": 7537,
      "ĠCH": 7538,
      "ĠAp": 7539,
      "ĠBang": 7540,
      "Ġsuf": 7541,
      "ema": 7542,
      "ĠLook": 7543,
      "ĠNon": 7544,
      "Ġlect": 7545,
      "Ġprize": 7546,
      "aken": 7547,
      "Ġ38": 7548,
      "ĠStan": 7549,
      "ocracy": 7550,
      "Ġfinance": 7551,
      "Ġasset": 7552,
      "Ġvisits": 7553,
      "Ġexpenses": 7554,
      "Ġblocks": 7555,
      "Ġpromise": 7556,
      "Ġdemands": 7557,
      "Ġassisted": 7558,
      "class": 7559,
      "Ġpleasure": 7560,
      "Ġapplies": 7561,
      "Ġdelivering": 7562,
      "Ġslowly": 7563,
      "Ġdreams": 7564,
      "Ġfairly": 7565,
      "Ġadvertise": 7566,
      "Ġpodcast": 7567,
      "59": 7568,
      "GB": 7569,
      "Rated": 7570,
      "ĠÐ°": 7571,
      "inent": 7572,
      "Ġwarning": 7573,
      "Ġcyl": 7574,
      "Ġfitted": 7575,
      "Ġborder": 7576,
      "edu": 7577,
      "Ġtooth": 7578,
      "Ġmir": 7579,
      "Ġhoney": 7580,
      "urse": 7581,
      "ĠCast": 7582,
      "ĠAud": 7583,
      "Ġexter": 7584,
      "ĠLib": 7585,
      "Ġmere": 7586,
      "lose": 7587,
      "ailing": 7588,
      "Ġunex": 7589,
      "Ġdishes": 7590,
      "Ġremained": 7591,
      "Ġdesigning": 7592,
      "Ġinstant": 7593,
      "Ġintent": 7594,
      "2019": 7595,
      "Ġstatements": 7596,
      "ĠColumb": 7597,
      "Ġsumm": 7598,
      "Ġassociation": 7599,
      "Ġlifetime": 7600,
      "Ġflexibility": 7601,
      "Ġsuffering": 7602,
      "Ġintellectual": 7603,
      "ĠSupreme": 7604,
      "%.": 7605,
      "'.": 7606,
      "AA": 7607,
      "Looking": 7608,
      "Pr": 7609,
      "Te": 7610,
      "UT": 7611,
      "chers": 7612,
      "hal": 7613,
      "htt": 7614,
      "lined": 7615,
      "zer": 7616,
      "onic": 7617,
      "Ġfits": 7618,
      "Ġphen": 7619,
      "anes": 7620,
      "Ġdough": 7621,
      "Ġdownt": 7622,
      "level": 7623,
      "omic": 7624,
      "ashed": 7625,
      "Ġnarr": 7626,
      "etooth": 7627,
      "Ġstages": 7628,
      "ĠEnd": 7629,
      "ĠEll": 7630,
      "Ġplot": 7631,
      "ĠOak": 7632,
      "Ġadequ": 7633,
      "Ġenforce": 7634,
      "Ġcontaining": 7635,
      "Ġtech": 7636,
      "Ġprayer": 7637,
      "Ġjustice": 7638,
      "Ġempt": 7639,
      "riers": 7640,
      "Ġpresents": 7641,
      "Ġopens": 7642,
      "Ġfollows": 7643,
      "Ġrefuge": 7644,
      "Ġpoker": 7645,
      "Ġjoining": 7646,
      "Ġbedding": 7647,
      "Ġmagazine": 7648,
      "Ġfundamental": 7649,
      "Ġcelebration": 7650,
      "ĠAuto": 7651,
      "Ġconvenience": 7652,
      "PROMAN": 7653,
      "ĠJackson": 7654,
      "Ġcabinet": 7655,
      "ĠHistory": 7656,
      "Ġliquid": 7657,
      "ĠSafety": 7658,
      "Oh": 7659,
      "Per": 7660,
      "SD": 7661,
      "SP": 7662,
      "ji": 7663,
      "person": 7664,
      "swe": 7665,
      "Â°": 7666,
      "Ġram": 7667,
      "Ġ..": 7668,
      "Ġtack": 7669,
      "Ġsulf": 7670,
      "ingu": 7671,
      "Ġpace": 7672,
      "arat": 7673,
      "Ġgene": 7674,
      "ĠTal": 7675,
      "Ġstro": 7676,
      "ulpt": 7677,
      "ĠBath": 7678,
      "ĠHon": 7679,
      "ĠDid": 7680,
      "Ġsemin": 7681,
      "ĠRest": 7682,
      "ĠLearn": 7683,
      "anda": 7684,
      "ĠEs": 7685,
      "agers": 7686,
      "Ġarms": 7687,
      "Ġcolumn": 7688,
      "Ġrelation": 7689,
      "ĠWhich": 7690,
      "Ġsubmitted": 7691,
      "Ġloop": 7692,
      "Ġpurs": 7693,
      "Ġorganis": 7694,
      "ĠTech": 7695,
      "Ġpromises": 7696,
      "Ġcausing": 7697,
      "Ġlowest": 7698,
      "Ġwriters": 7699,
      "Ġpackaging": 7700,
      "ĠRobert": 7701,
      "Ġpercentage": 7702,
      "Ġholidays": 7703,
      "Ġcatalog": 7704,
      "Ġconsultation": 7705,
      "Ġsubsid": 7706,
      "Ġcontainer": 7707,
      "Ġexhibition": 7708,
      "Ġinitiative": 7709,
      "Ġcomplaint": 7710,
      "ĠMotor": 7711,
      "ĠHawai": 7712,
      "Post": 7713,
      "cons": 7714,
      "long": 7715,
      "then": 7716,
      "anium": 7717,
      "Ġmale": 7718,
      "ĠTru": 7719,
      "ĠSuch": 7720,
      "ĠSix": 7721,
      "ĠMic": 7722,
      "ĠPot": 7723,
      "ĠBoston": 7724,
      "Ġsections": 7725,
      "ĠEnergy": 7726,
      "Ġworn": 7727,
      "ourcing": 7728,
      "Ġloving": 7729,
      "Ġresid": 7730,
      "ĠUnivers": 7731,
      "Ġstrange": 7732,
      "Ġmemories": 7733,
      "Ġmuscles": 7734,
      "Ġfaces": 7735,
      "Ġslot": 7736,
      "Ġfocuses": 7737,
      "Ġpacked": 7738,
      "Ġforever": 7739,
      "Ġcombine": 7740,
      "Ġtraveling": 7741,
      "Ġmotion": 7742,
      "onym": 7743,
      "Ġtexture": 7744,
      "ĠBuy": 7745,
      "ventional": 7746,
      "Ġwooden": 7747,
      "limited": 7748,
      "Ġincreasingly": 7749,
      "Ġboys": 7750,
      "Ġtagged": 7751,
      "ĠIdeas": 7752,
      "Ġreferred": 7753,
      "Ġspectac": 7754,
      "Ġancient": 7755,
      "Ġcoupon": 7756,
      "34": 7757,
      "II": 7758,
      "See": 7759,
      "Tr": 7760,
      "bage": 7761,
      "from": 7762,
      "po": 7763,
      "yan": 7764,
      "ÑĢ": 7765,
      "heast": 7766,
      "âĢĺ": 7767,
      "ĠId": 7768,
      "otic": 7769,
      "ĠSometimes": 7770,
      "ĠAwards": 7771,
      "elly": 7772,
      "advant": 7773,
      "ĠPo": 7774,
      "Ġcomforter": 7775,
      "Ġyours": 7776,
      "abil": 7777,
      "ĠDru": 7778,
      "this": 7779,
      "Ġ150": 7780,
      "Ġrinse": 7781,
      "artz": 7782,
      "Ġchances": 7783,
      "ĠGene": 7784,
      "ĠEM": 7785,
      "Ġplain": 7786,
      "ĠOl": 7787,
      "Ġspoke": 7788,
      "fective": 7789,
      "Ġinsert": 7790,
      "ĠUnfortunately": 7791,
      "Ġfunny": 7792,
      "ĠShould": 7793,
      "autiful": 7794,
      "Ġversat": 7795,
      "Ġpreparing": 7796,
      "Ġofficers": 7797,
      "doors": 7798,
      "Ġpotentially": 7799,
      "Ġpersons": 7800,
      "Ġindepend": 7801,
      "Ġdivision": 7802,
      "ĠAbout": 7803,
      "Ġcertification": 7804,
      "Ġhoping": 7805,
      "ĠSaudi": 7806,
      "Ġdropped": 7807,
      "Ġsponsors": 7808,
      "Ġsubstantial": 7809,
      "Ġtissue": 7810,
      "ĠSoftware": 7811,
      "Ġexpansion": 7812,
      "06": 7813,
      "EE": 7814,
      "Each": 7815,
      "Ġfest": 7816,
      "Ġmood": 7817,
      "omatic": 7818,
      "lymp": 7819,
      "Ġisol": 7820,
      "iger": 7821,
      "ĠMu": 7822,
      "ĠMat": 7823,
      "ĠMom": 7824,
      "ĠMax": 7825,
      "ĠBon": 7826,
      "Ġrural": 7827,
      "ĠLLC": 7828,
      "Ġworst": 7829,
      "Ġabuse": 7830,
      "Ġjur": 7831,
      "agan": 7832,
      "Ġuncom": 7833,
      "Ġunknown": 7834,
      "Ġspo": 7835,
      "aping": 7836,
      "Ġdisaster": 7837,
      "Ġoverwhel": 7838,
      "Ġimpossible": 7839,
      "Ġscan": 7840,
      "Ġ400": 7841,
      "Ġsmell": 7842,
      "Ġdriven": 7843,
      "Ġcounty": 7844,
      "Ġesc": 7845,
      "Ġimprovements": 7846,
      "Ġtalks": 7847,
      "Ġdefinition": 7848,
      "Ġdestroy": 7849,
      "Ġdiseases": 7850,
      "Ġhopes": 7851,
      "Ġnutrition": 7852,
      "Ġaccuracy": 7853,
      "Ġdurable": 7854,
      "ĠSecretary": 7855,
      "ìĹĲ": 7856,
      "57": 7857,
      "Rem": 7858,
      "under": 7859,
      "Ġille": 7860,
      "inery": 7861,
      "Ġhidden": 7862,
      "Ġyield": 7863,
      "Ġgel": 7864,
      "ĠIran": 7865,
      "ĠTry": 7866,
      "adow": 7867,
      "amber": 7868,
      "Ġwhirlpool": 7869,
      "ĠBi": 7870,
      "ĠFOR": 7871,
      "ĠRose": 7872,
      "ĠRights": 7873,
      "ivals": 7874,
      "ĠNight": 7875,
      "Ġenroll": 7876,
      "ĠJul": 7877,
      "ouses": 7878,
      "Ġanyway": 7879,
      "Ġtradition": 7880,
      "Ġrod": 7881,
      "Ġcoal": 7882,
      "Ġshouldn": 7883,
      "Ġflash": 7884,
      "Ġexport": 7885,
      "aze": 7886,
      "Ġlisting": 7887,
      "ĠClin": 7888,
      "Who": 7889,
      "Ġaircraft": 7890,
      "ĠIsrael": 7891,
      "Ġelectron": 7892,
      "Ġrequirement": 7893,
      "Ġcomputers": 7894,
      "Ġnecessarily": 7895,
      "Ġstocks": 7896,
      "Ġfunctional": 7897,
      "Ġrespectively": 7898,
      "Ġillness": 7899,
      "Ġpulled": 7900,
      "Ġvenue": 7901,
      "Ġrepeated": 7902,
      "Ġtemplate": 7903,
      "Ġsurgeon": 7904,
      "ëĭ¤": 7905,
      "Ġcompensation": 7906,
      "ĠBluetooth": 7907,
      "41": 7908,
      "Ab": 7909,
      "May": 7910,
      "Note": 7911,
      "ais": 7912,
      "pes": 7913,
      "Ã³": 7914,
      "intend": 7915,
      "Ġfalse": 7916,
      "Ġreform": 7917,
      "ĠTurn": 7918,
      "ĠCru": 7919,
      "unior": 7920,
      "ĠBM": 7921,
      "Ġrising": 7922,
      "arters": 7923,
      "ĠGar": 7924,
      "Ġcomprom": 7925,
      "acon": 7926,
      "Ġtender": 7927,
      "lude": 7928,
      "Ġconscious": 7929,
      "Ġsetup": 7930,
      "Ġvisible": 7931,
      "Ġ800": 7932,
      "ĠQuality": 7933,
      "Ġheads": 7934,
      "Ġlesson": 7935,
      "Ġconnections": 7936,
      "Ġstronger": 7937,
      "Ġstudying": 7938,
      "Ġtournament": 7939,
      "Ġtaxes": 7940,
      "Ġsensitive": 7941,
      "Ġcontribution": 7942,
      "Ġexpanded": 7943,
      "Ġinitiatives": 7944,
      "Ġmagnetic": 7945,
      "Ġwireless": 7946,
      "ĠInsurance": 7947,
      "Ġtemplates": 7948,
      "Ġestimated": 7949,
      "Ġsplit": 7950,
      "Ġcomparison": 7951,
      "ĠQueen": 7952,
      "Ġinstrument": 7953,
      "Ġnegoti": 7954,
      "burgh": 7955,
      "Ġstreets": 7956,
      "Ġsatisfaction": 7957,
      "Good": 7958,
      "NOW": 7959,
      "uing": 7960,
      "Ã¢": 7961,
      "inos": 7962,
      "Ġfestival": 7963,
      "Ġmit": 7964,
      "Ġhole": 7965,
      "adium": 7966,
      "illiant": 7967,
      "esthetic": 7968,
      "abb": 7969,
      "ĠHold": 7970,
      "ĠHug": 7971,
      "ĠDog": 7972,
      "pection": 7973,
      "ĠFort": 7974,
      "Ġru": 7975,
      "asting": 7976,
      "ailand": 7977,
      "Ġcloth": 7978,
      "ansas": 7979,
      "Ġoverl": 7980,
      "Ġscored": 7981,
      "mercial": 7982,
      "ĠAspire": 7983,
      "Ġcompletion": 7984,
      "Ġletting": 7985,
      "Ġopposite": 7986,
      "Ġemployer": 7987,
      "ĠOrder": 7988,
      "ĠTrust": 7989,
      "Ġdamaged": 7990,
      "Ġhosted": 7991,
      "criptions": 7992,
      "Ġrecognition": 7993,
      "Ġwalked": 7994,
      "Ġpriority": 7995,
      "Ġdocumentation": 7996,
      "Ġgender": 7997,
      "Ġsurprising": 7998,
      "Ġdivide": 7999,
      "Ġacquired": 8000,
      "ĠFinally": 8001,
      "Ġaims": 8002,
      "Ġfiber": 8003,
      "Ġevaluate": 8004,
      "Ġconfiguration": 8005,
      "Ġoxygen": 8006,
      "ĠScotland": 8007,
      "Ġgentle": 8008,
      "!)": 8009,
      "Americ": 8010,
      "EG": 8011,
      "Whether": 8012,
      "kins": 8013,
      "nce": 8014,
      "pack": 8015,
      "rat": 8016,
      "zing": 8017,
      "Ġtired": 8018,
      "inals": 8019,
      "Ġsouthern": 8020,
      "isd": 8021,
      "Ġmg": 8022,
      "Ġinn": 8023,
      "Ġdent": 8024,
      "stery": 8025,
      "charge": 8026,
      "ĠCross": 8027,
      "Ġstrict": 8028,
      "oos": 8029,
      "ĠWild": 8030,
      "ĠDun": 8031,
      "Ġvoc": 8032,
      "ĠLocal": 8033,
      "ĠEp": 8034,
      "ials": 8035,
      "ĠOk": 8036,
      "ĠOlymp": 8037,
      "ghan": 8038,
      "Ġcomplim": 8039,
      "Ġexperiment": 8040,
      "ools": 8041,
      "Ġgreatly": 8042,
      "Ġdrinking": 8043,
      "Ġpossess": 8044,
      "Ġdirections": 8045,
      "Ġsalv": 8046,
      "ĠiP": 8047,
      "ĠPrim": 8048,
      "ĠGuys": 8049,
      "Ġsuggests": 8050,
      "Ġlayout": 8051,
      "ĠRegard": 8052,
      "ĠAgain": 8053,
      "Ġcarrying": 8054,
      "Ġgarage": 8055,
      "Ġneighb": 8056,
      "Ġvictory": 8057,
      "ymph": 8058,
      "Ġpreferred": 8059,
      "Ġgranted": 8060,
      "Ġvolunteer": 8061,
      "Ġvolunteers": 8062,
      "ĠWilliams": 8063,
      "Ġbirds": 8064,
      "igrants": 8065,
      "FS": 8066,
      "Go": 8067,
      "Net": 8068,
      "TO": 8069,
      "TV": 8070,
      "days": 8071,
      "tes": 8072,
      "Ġtact": 8073,
      "Ġfishing": 8074,
      "Ġmur": 8075,
      "Ġmold": 8076,
      "Ġdivid": 8077,
      "Ġhook": 8078,
      "Ġyard": 8079,
      "Ġlun": 8080,
      "utter": 8081,
      "ifier": 8082,
      "ĠWalk": 8083,
      "Ġhes": 8084,
      "Ġheating": 8085,
      "Ġneither": 8086,
      "ĠHim": 8087,
      "ĠDri": 8088,
      "ĠFREE": 8089,
      "Ġcancell": 8090,
      "ĠLink": 8091,
      "ĠLiving": 8092,
      "ĠLatin": 8093,
      "Ġchamp": 8094,
      "ĠEss": 8095,
      "ĠNever": 8096,
      "Ġhasn": 8097,
      "ĠJose": 8098,
      "Ġunus": 8099,
      "Ġspan": 8100,
      "ĠStore": 8101,
      "Ġtrim": 8102,
      "Ġrelating": 8103,
      "Ġmodule": 8104,
      "ĠProper": 8105,
      "Ġgrace": 8106,
      "ĠFrank": 8107,
      "Ġestimate": 8108,
      "Ġexplains": 8109,
      "Ġbasically": 8110,
      "ushing": 8111,
      "Ġnights": 8112,
      "Ġconsideration": 8113,
      "EST": 8114,
      "Ġtourism": 8115,
      "ĠStep": 8116,
      "ĠNext": 8117,
      "Ġrepresented": 8118,
      "Ġimplemented": 8119,
      "Ġlogical": 8120,
      "ĠBritain": 8121,
      "Ġfighting": 8122,
      "Ġsupplier": 8123,
      "Ġrelaxing": 8124,
      "Ġdistributed": 8125,
      "ĠJeff": 8126,
      "íķĺ": 8127,
      "Ġsuffer": 8128,
      "Ġsatisfied": 8129,
      "Ġrecipes": 8130,
      "ĠFurthermore": 8131,
      "ĠIrish": 8132,
      "abetes": 8133,
      "02": 8134,
      "AY": 8135,
      "IB": 8136,
      "LY": 8137,
      "NC": 8138,
      "Other": 8139,
      "fall": 8140,
      "ä¸": 8141,
      "Ġsought": 8142,
      "ati": 8143,
      "icit": 8144,
      "Ġyoga": 8145,
      "otation": 8146,
      "ĠSac": 8147,
      "Ġalter": 8148,
      "ĠBR": 8149,
      "ĠBed": 8150,
      "Ġoral": 8151,
      "ĠHP": 8152,
      "Ġriding": 8153,
      "ĠLo": 8154,
      "ĠLittle": 8155,
      "Ġchairs": 8156,
      "ĠUr": 8157,
      "apore": 8158,
      "Ġimpression": 8159,
      "ĠChall": 8160,
      "jection": 8161,
      "oving": 8162,
      "Ġchest": 8163,
      "iox": 8164,
      "Ġmedi": 8165,
      "ĠShop": 8166,
      "Ġobjects": 8167,
      "Ġconcerning": 8168,
      "ĠAdobe": 8169,
      "Ġcrime": 8170,
      "ĠSpain": 8171,
      "Ġpainted": 8172,
      "enny": 8173,
      "Ġlimits": 8174,
      "Ġpurchases": 8175,
      "Ġzero": 8176,
      "ĠEnjoy": 8177,
      "Ġconsumption": 8178,
      "Ġutility": 8179,
      "ĠAirport": 8180,
      "Ġpromoting": 8181,
      "Ġtelephone": 8182,
      "Ġtransportation": 8183,
      "Ġelectricity": 8184,
      "Ġdataset": 8185,
      "Ġdecrease": 8186,
      "Ġswimming": 8187,
      "Ġalleged": 8188,
      "43": 8189,
      "OH": 8190,
      "World": 8191,
      "iy": 8192,
      "jack": 8193,
      "ystem": 8194,
      "Ġpapers": 8195,
      "lywood": 8196,
      "ĠSus": 8197,
      "rape": 8198,
      "Ġstood": 8199,
      "ĠMust": 8200,
      "ership": 8201,
      "Ġhabit": 8202,
      "ĠHoly": 8203,
      "ĠRd": 8204,
      "Ġ250": 8205,
      "Ġchart": 8206,
      "Ġoutcomes": 8207,
      "lla": 8208,
      "ubs": 8209,
      "ĠChris": 8210,
      "ounded": 8211,
      "Ġcoat": 8212,
      "ĠAsian": 8213,
      "iversary": 8214,
      "Ġ2001": 8215,
      "Ġapproaches": 8216,
      "Ġplanet": 8217,
      "Ġoperated": 8218,
      "Ġputs": 8219,
      "ĠExpl": 8220,
      "Ġequity": 8221,
      "Ġmoves": 8222,
      "Ġlegs": 8223,
      "ĠColl": 8224,
      "rett": 8225,
      "Ġpublication": 8226,
      "Ġceremony": 8227,
      "Ġdifficulties": 8228,
      "ĠCountry": 8229,
      "front": 8230,
      "Ġconsultant": 8231,
      "Ġdrawing": 8232,
      "ĠGolden": 8233,
      "Ġbelieved": 8234,
      "ĠCustomer": 8235,
      "ĠPhoto": 8236,
      "Ġancest": 8237,
      "Ġunderstood": 8238,
      "58": 8239,
      "AG": 8240,
      "iability": 8241,
      "ls": 8242,
      "press": 8243,
      "tons": 8244,
      "vas": 8245,
      "Ð¸": 8246,
      "erals": 8247,
      "encing": 8248,
      "Ġbold": 8249,
      "Ġlaugh": 8250,
      "Ġgard": 8251,
      "raq": 8252,
      "ĠAlp": 8253,
      "Ġstuck": 8254,
      "ĠPic": 8255,
      "ĠBlo": 8256,
      "ĠHR": 8257,
      "ĠDu": 8258,
      "Ġseasons": 8259,
      "Ġkil": 8260,
      "Ġcontracts": 8261,
      "Ġpride": 8262,
      "Ġspam": 8263,
      "aka": 8264,
      "ĠVan": 8265,
      "Ġscrew": 8266,
      "Ġcarrier": 8267,
      "Ġinsights": 8268,
      "Ġbranch": 8269,
      "Ġassume": 8270,
      "Ġdiscl": 8271,
      "Ġcourts": 8272,
      "Ġmathe": 8273,
      "Ġedited": 8274,
      "ounge": 8275,
      "Ġcapability": 8276,
      "Ġdrag": 8277,
      "ĠTravel": 8278,
      "Ġexamination": 8279,
      "Ġtargeted": 8280,
      "month": 8281,
      "itution": 8282,
      "Ġbroadcast": 8283,
      "ĠMarketing": 8284,
      "Ġscientists": 8285,
      "Ġastron": 8286,
      "Ġoblig": 8287,
      "ĠColorado": 8288,
      "Ġapparently": 8289,
      "Ġbeneficial": 8290,
      "Ġdispenser": 8291,
      "97": 8292,
      "Ke": 8293,
      "Su": 8294,
      "Will": 8295,
      "hr": 8296,
      "hu": 8297,
      "pat": 8298,
      "rite": 8299,
      "Ġtur": 8300,
      "isdom": 8301,
      "Ġine": 8302,
      "ĠCO": 8303,
      "ĠAD": 8304,
      "aded": 8305,
      "amic": 8306,
      "una": 8307,
      "ĠBB": 8308,
      "ĠWhe": 8309,
      "ĠDating": 8310,
      "ĠFour": 8311,
      "Ġrated": 8312,
      "ĠRam": 8313,
      "ĠRew": 8314,
      "Ġshots": 8315,
      "ĠGarden": 8316,
      "agen": 8317,
      "izer": 8318,
      "orses": 8319,
      "Ġ33": 8320,
      "Ġinvite": 8321,
      "ounter": 8322,
      "Ġrefresh": 8323,
      "Ġmuscle": 8324,
      "Ġbelt": 8325,
      "Ġengines": 8326,
      "ropical": 8327,
      "Ġceiling": 8328,
      "bridge": 8329,
      "Ġpurchasing": 8330,
      "Ġkeyword": 8331,
      "Ġstatistics": 8332,
      "Ġdebate": 8333,
      "ĠAngels": 8334,
      "Ġmedications": 8335,
      "ĠAccount": 8336,
      "anchise": 8337,
      "Ġgraphic": 8338,
      "ĠAnnual": 8339,
      "Ġrapidly": 8340,
      "Ġdisplays": 8341,
      "Ġunexpected": 8342,
      "best": 8343,
      "car": 8344,
      "cific": 8345,
      "making": 8346,
      "uer": 8347,
      "ument": 8348,
      "anth": 8349,
      "alle": 8350,
      "Ġhill": 8351,
      "Ġgym": 8352,
      "raid": 8353,
      "ĠMobile": 8354,
      "Ġwhilst": 8355,
      "Ġweren": 8356,
      "ĠBible": 8357,
      "ĠFederal": 8358,
      "ĠOx": 8359,
      "Ġcomply": 8360,
      "Ġkne": 8361,
      "Ġoutdoors": 8362,
      "ĠThai": 8363,
      "onder": 8364,
      "Ġphr": 8365,
      "Ġacceler": 8366,
      "Ġbridge": 8367,
      "Ġpersonality": 8368,
      "ĠForm": 8369,
      "ĠFormat": 8370,
      "iences": 8371,
      "Ġbuyer": 8372,
      "Ġpoet": 8373,
      "Ġensures": 8374,
      "anna": 8375,
      "AND": 8376,
      "Ġaddresses": 8377,
      "Ġacquisition": 8378,
      "ĠTechnical": 8379,
      "Ġbelieves": 8380,
      "Ġcomplain": 8381,
      "Ġpowder": 8382,
      "Ġtransactions": 8383,
      "Ġwarranty": 8384,
      "Ġpregnancy": 8385,
      "Ġuncertain": 8386,
      "Ġentrance": 8387,
      "ĠKitchen": 8388,
      "ught": 8389,
      "bra": 8390,
      "mart": 8391,
      "page": 8392,
      "rick": 8393,
      "uana": 8394,
      "Î¿": 8395,
      "Ġau": 8396,
      "edge": 8397,
      "Ġdad": 8398,
      "Ġdual": 8399,
      "ilitation": 8400,
      "ĠTempl": 8401,
      "otive": 8402,
      "ĠSound": 8403,
      "ĠAS": 8404,
      "ĠWi": 8405,
      "anted": 8406,
      "ĠLED": 8407,
      "Ġ(âĢľ": 8408,
      "Ġlets": 8409,
      "ĠJim": 8410,
      "Ġlock": 8411,
      "ĠThailand": 8412,
      "Ġclicking": 8413,
      "ervice": 8414,
      "Ġspark": 8415,
      "Ġpeak": 8416,
      "Ġconsent": 8417,
      "Ġactively": 8418,
      "Ġ55": 8419,
      "ricted": 8420,
      "Ġdecent": 8421,
      "Ġchildhood": 8422,
      "lessly": 8423,
      "Ġobst": 8424,
      "gypt": 8425,
      "ĠAdditionally": 8426,
      "Ġlessons": 8427,
      "ĠUSB": 8428,
      "ĠIslam": 8429,
      "apped": 8430,
      "Ġsolo": 8431,
      "Ġcovering": 8432,
      "Ġstayed": 8433,
      "Ġinvolving": 8434,
      "ĠArea": 8435,
      "Ġterror": 8436,
      "ĠMedicine": 8437,
      "ĠCharles": 8438,
      "ĠCasino": 8439,
      "Ġdeposit": 8440,
      "ĠNatural": 8441,
      "Ġintelligence": 8442,
      "Ġsophistic": 8443,
      "Ġsuffered": 8444,
      "AB": 8445,
      "Book": 8446,
      "Because": 8447,
      "born": 8448,
      "har": 8449,
      "Ġwise": 8450,
      "Ġdedic": 8451,
      "aska": 8452,
      "Ġgaming": 8453,
      "ĠIraq": 8454,
      "Ġbeans": 8455,
      "ĠSide": 8456,
      "immer": 8457,
      "ĠCredit": 8458,
      "Ġstable": 8459,
      "Ġstability": 8460,
      "ĠMatt": 8461,
      "ulum": 8462,
      "ĠPract": 8463,
      "ĠBox": 8464,
      "ĠBlog": 8465,
      "ĠWrit": 8466,
      "Ġattending": 8467,
      "ĠHou": 8468,
      "ĠHard": 8469,
      "ighth": 8470,
      "pending": 8471,
      "Ġchronic": 8472,
      "ĠGirl": 8473,
      "ĠEastern": 8474,
      "izza": 8475,
      "Ġunw": 8476,
      "ults": 8477,
      "Ġsculpt": 8478,
      "Ġcock": 8479,
      "Ġafraid": 8480,
      "Ġindoor": 8481,
      "cycle": 8482,
      "Ġgrab": 8483,
      "ĠAnim": 8484,
      "ĠAnaly": 8485,
      "Ġ95": 8486,
      "Ġopposition": 8487,
      "Ġblogs": 8488,
      "Ġchecked": 8489,
      "Ġclock": 8490,
      "Ġorigin": 8491,
      "Ġmaintaining": 8492,
      "Ġindicate": 8493,
      "ĠStudents": 8494,
      "Ġfrequent": 8495,
      "Ġretailers": 8496,
      "Ġownership": 8497,
      "Ġinteraction": 8498,
      "Ġopinions": 8499,
      "Ġreaction": 8500,
      "Ġwatched": 8501,
      "Ġphotographer": 8502,
      "Ġjuice": 8503,
      "Add": 8504,
      "cular": 8505,
      "df": 8506,
      "tail": 8507,
      "ĭľ": 8508,
      "Ġtro": 8509,
      "Ġax": 8510,
      "Ġske": 8511,
      "Ġmob": 8512,
      "ĠTR": 8513,
      "igate": 8514,
      "ĠCro": 8515,
      "ĠDan": 8516,
      "ĠDennis": 8517,
      "emed": 8518,
      "ĠLine": 8519,
      "ĠGreek": 8520,
      "ĠOp": 8521,
      "agra": 8522,
      "acies": 8523,
      "ĠThough": 8524,
      "Ġprime": 8525,
      "Ġroles": 8526,
      "Ġacting": 8527,
      "airy": 8528,
      "Ġstrip": 8529,
      "Ġspecified": 8530,
      "ĠTrail": 8531,
      "Ġprivile": 8532,
      "ivalent": 8533,
      "Ġcardi": 8534,
      "ĠGovern": 8535,
      "Ġmanufactured": 8536,
      "ĠMinistry": 8537,
      "haust": 8538,
      "Ġrolling": 8539,
      "Ġalternatives": 8540,
      "visor": 8541,
      "Ġanalytics": 8542,
      "ijuana": 8543,
      "Ġpushing": 8544,
      "Ġlikes": 8545,
      "Ġratio": 8546,
      "ê³ł": 8547,
      "Ġempty": 8548,
      "Ġspectacular": 8549,
      "86": 8550,
      "92": 8551,
      "Fi": 8552,
      "LS": 8553,
      "bn": 8554,
      "ez": 8555,
      "och": 8556,
      "ë¡": 8557,
      "ï¼": 8558,
      "Ġtip": 8559,
      "isms": 8560,
      "Ġpour": 8561,
      "Ġindu": 8562,
      "ione": 8563,
      "Ġlies": 8564,
      "Ġreject": 8565,
      "eto": 8566,
      "ĠSM": 8567,
      "char": 8568,
      "ĠMur": 8569,
      "herry": 8570,
      "Ġhel": 8571,
      "Ġ1000": 8572,
      "Ġallerg": 8573,
      "ĠOwn": 8574,
      "acious": 8575,
      "ĠJer": 8576,
      "Ġthemes": 8577,
      "Ġrose": 8578,
      "Ġ34": 8579,
      "Ġpepper": 8580,
      "ĠYoung": 8581,
      "Ġreprodu": 8582,
      "Ġentering": 8583,
      "elfare": 8584,
      "Ġblind": 8585,
      "Ġloose": 8586,
      "Ġdrives": 8587,
      "Ġoperational": 8588,
      "Ġexplan": 8589,
      "Ġexploring": 8590,
      "Ġlargely": 8591,
      "Ġcreativity": 8592,
      "apping": 8593,
      "Ġcompete": 8594,
      "Stud": 8595,
      "Ġtalented": 8596,
      "Ġtourist": 8597,
      "Ġexamine": 8598,
      "mediate": 8599,
      "Ġcalm": 8600,
      "Ġ--|": 8601,
      "Ġsensor": 8602,
      "iami": 8603,
      "Ġfrequency": 8604,
      "Before": 8605,
      "Ġrevolution": 8606,
      "Ġmeaningful": 8607,
      "Residential": 8608,
      "Ġranking": 8609,
      "Ġstruggle": 8610,
      "ĠForest": 8611,
      "Ġobviously": 8612,
      "Ġquotes": 8613,
      "Ġsamples": 8614,
      "ĠPersonal": 8615,
      "Ġelder": 8616,
      "FC": 8617,
      "Fe": 8618,
      "Two": 8619,
      "fig": 8620,
      "nl": 8621,
      "uis": 8622,
      "Ġaugust": 8623,
      "inet": 8624,
      "Ġwra": 8625,
      "nda": 8626,
      "Ġcig": 8627,
      "itable": 8628,
      "Ġbatt": 8629,
      "style": 8630,
      "ĠSar": 8631,
      "uling": 8632,
      "sec": 8633,
      "ĠPage": 8634,
      "ĠBoy": 8635,
      "Ġextend": 8636,
      "ĠDub": 8637,
      "ĠDedicated": 8638,
      "ĠRon": 8639,
      "ĠGames": 8640,
      "ĠNut": 8641,
      "ferent": 8642,
      "ĠJam": 8643,
      "ogen": 8644,
      "Ġshoulder": 8645,
      "Ġfinishing": 8646,
      "Ġsurve": 8647,
      "Ġattitude": 8648,
      "Ġdefine": 8649,
      "Ġinfring": 8650,
      "Ġinvestments": 8651,
      "Ġgrate": 8652,
      "Ġeffectiveness": 8653,
      "Ġviewing": 8654,
      "rooms": 8655,
      "Ġaccounting": 8656,
      "chest": 8657,
      "Ġamounts": 8658,
      "opyright": 8659,
      "Ġautomatic": 8660,
      "Ġparticipation": 8661,
      "ĠImage": 8662,
      "ĠJohnson": 8663,
      "Ġpolitics": 8664,
      "ĠPerform": 8665,
      "Ġsettled": 8666,
      "Ġoccurred": 8667,
      "ĠWordPress": 8668,
      "Ġcrypt": 8669,
      "Ġmerch": 8670,
      "ĠObama": 8671,
      "ĠSquare": 8672,
      "DataSet": 8673,
      "%,": 8674,
      "fers": 8675,
      "mg": 8676,
      "oir": 8677,
      "rie": 8678,
      "wich": 8679,
      "heet": 8680,
      "requ": 8681,
      "Ġbones": 8682,
      "Ġballs": 8683,
      "ingo": 8684,
      "leep": 8685,
      "stan": 8686,
      "uther": 8687,
      "ĠSn": 8688,
      "ĠSav": 8689,
      "ĠSanta": 8690,
      "Ġalign": 8691,
      "erse": 8692,
      "ulating": 8693,
      "ĠPut": 8694,
      "ĠBlock": 8695,
      "ĠHor": 8696,
      "Ġdeploy": 8697,
      "ĠRoof": 8698,
      "Ġadj": 8699,
      "Ġevil": 8700,
      "Ġtrips": 8701,
      "ensus": 8702,
      "Ġaccord": 8703,
      "iances": 8704,
      "Ġreader": 8705,
      "Ġcustomized": 8706,
      "Ġadvent": 8707,
      "Ġ65": 8708,
      "Ġperformances": 8709,
      "Ġsalary": 8710,
      "Ġ1999": 8711,
      "Ġtourists": 8712,
      "Ġamongst": 8713,
      "Ġexistence": 8714,
      "Ġcloset": 8715,
      "Ġcharacteristics": 8716,
      "Ġhttps": 8717,
      "Ġfruits": 8718,
      "Ġdemonstr": 8719,
      "Ġadopted": 8720,
      "ĠInfin": 8721,
      "Ġaccommodation": 8722,
      "ĠMaryland": 8723,
      "Ġcolleagues": 8724,
      "ĠWorks": 8725,
      "ĠProfessional": 8726,
      "Ġintegration": 8727,
      "ĠHawaii": 8728,
      "Ġjurisd": 8729,
      "FF": 8730,
      "aud": 8731,
      "books": 8732,
      "ja": 8733,
      "sen": 8734,
      "Ġtam": 8735,
      "Ġtube": 8736,
      "oned": 8737,
      "Ġlie": 8738,
      "Ġlaser": 8739,
      "ĠTer": 8740,
      "otal": 8741,
      "ĠSon": 8742,
      "ĠSig": 8743,
      "ima": 8744,
      "ĠMrs": 8745,
      "ĠWH": 8746,
      "Ġseal": 8747,
      "Ġsectors": 8748,
      "Ġvine": 8749,
      "ĠRight": 8750,
      "ĠGram": 8751,
      "ĠEsc": 8752,
      "Ġlemon": 8753,
      "oster": 8754,
      "ĠJersey": 8755,
      "Ġpermit": 8756,
      "Ġdispos": 8757,
      "inton": 8758,
      "angers": 8759,
      "Ġraces": 8760,
      "Ġfindings": 8761,
      "Ġpersonnel": 8762,
      "Ġpossibilities": 8763,
      "Ġintention": 8764,
      "Ġpassage": 8765,
      "Ġgrid": 8766,
      "Ġlawyers": 8767,
      "ĠChristians": 8768,
      "Ġvariations": 8769,
      "ĠResp": 8770,
      "Ġcontractor": 8771,
      "Ġcontracted": 8772,
      "oken": 8773,
      "Ġtargets": 8774,
      "Ġdebut": 8775,
      "Ġattempts": 8776,
      "aniel": 8777,
      "Ġbulk": 8778,
      "Ġaggreg": 8779,
      "Ġvictims": 8780,
      "ĠRadio": 8781,
      "igenous": 8782,
      "05": 8783,
      "79": 8784,
      "Learn": 8785,
      "Welcome": 8786,
      "cery": 8787,
      "giving": 8788,
      "run": 8789,
      "zed": 8790,
      "Ġvert": 8791,
      "nders": 8792,
      "Ġcro": 8793,
      "itate": 8794,
      "itative": 8795,
      "Ġbes": 8796,
      "Ġinject": 8797,
      "ĠTreat": 8798,
      "olt": 8799,
      "olis": 8800,
      "ĠCP": 8801,
      "ĠMade": 8802,
      "Ġhab": 8803,
      "Ġfrustr": 8804,
      "ĠHun": 8805,
      "ĠDVD": 8806,
      "Ġsuite": 8807,
      "Ġ120": 8808,
      "ĠRod": 8809,
      "ĠRoll": 8810,
      "Ġchinch": 8811,
      "Ġworship": 8812,
      "terest": 8813,
      "Ġresident": 8814,
      "ĠKim": 8815,
      "Ġ39": 8816,
      "ĠStone": 8817,
      "Ġtwist": 8818,
      "Ġbackup": 8819,
      "Ġshell": 8820,
      "ributes": 8821,
      "Ġdrinks": 8822,
      "being": 8823,
      "Ġdirectors": 8824,
      "Ġharder": 8825,
      "Ġairline": 8826,
      "iko": 8827,
      "Ġfocusing": 8828,
      "Ġvariation": 8829,
      "Ġdrawn": 8830,
      "Ġlaid": 8831,
      "Ġbeds": 8832,
      "Ġhopefully": 8833,
      "ATION": 8834,
      "ĠPolicy": 8835,
      "Ġintroduce": 8836,
      "Ġinjured": 8837,
      "Ġtitles": 8838,
      "Ġprecious": 8839,
      "Ġacquire": 8840,
      "Ġcontinuous": 8841,
      "Ġpowered": 8842,
      "ĠRemember": 8843,
      "Ġpaintings": 8844,
      "ĠProducts": 8845,
      "Ġterrit": 8846,
      "habilitation": 8847,
      "Ġmoisture": 8848,
      "Ġcopies": 8849,
      "Ġcosm": 8850,
      "Ġretirement": 8851,
      "ĠPakistan": 8852,
      "ĠColumbia": 8853,
      "01": 8854,
      "84": 8855,
      "UM": 8856,
      "Up": 8857,
      "ao": 8858,
      "dings": 8859,
      "washer": 8860,
      "à¦": 8861,
      "heim": 8862,
      "Ġbunch": 8863,
      "Ġreception": 8864,
      "ctive": 8865,
      "Ġgall": 8866,
      "ĠCOM": 8867,
      "Ġalarm": 8868,
      "ĠMember": 8869,
      "ĠMiami": 8870,
      "Ġasp": 8871,
      "Ġconvert": 8872,
      "ĠDream": 8873,
      "ĠFac": 8874,
      "resent": 8875,
      "asted": 8876,
      "ĠJac": 8877,
      "Ġperm": 8878,
      "Ġovers": 8879,
      "ĠStill": 8880,
      "phones": 8881,
      "Ġcheaper": 8882,
      "Ġdeveloper": 8883,
      "Ġcomplement": 8884,
      "Ġprocessed": 8885,
      "azed": 8886,
      "Ġdrilling": 8887,
      "Ġsignature": 8888,
      "axy": 8889,
      "Ġresulted": 8890,
      "ĠLevel": 8891,
      "ĠBeing": 8892,
      "Ġdirected": 8893,
      "Ġcrash": 8894,
      "Ġmargin": 8895,
      "vironments": 8896,
      "Ġwondering": 8897,
      "ĠBridge": 8898,
      "Ġrepresentatives": 8899,
      "anguages": 8900,
      "Ġrobot": 8901,
      "Ġdiagnosis": 8902,
      "ĠMiller": 8903,
      "Ġcrisp": 8904,
      "Ġeggs": 8905,
      "Ġconstructed": 8906,
      "Ġgathering": 8907,
      "Ġfulfill": 8908,
      "Ġpassengers": 8909,
      "Ġpocket": 8910,
      "Ġcompatible": 8911,
      "Ġphilosophy": 8912,
      "ĠAgreement": 8913,
      "ĠIndustry": 8914,
      "ë¡ľ": 8915,
      ".ï¿½": 8916,
      "300": 8917,
      "67": 8918,
      "DS": 8919,
      "EP": 8920,
      "SH": 8921,
      "Use": 8922,
      "eah": 8923,
      "fits": 8924,
      "lan": 8925,
      "oking": 8926,
      "Ġtons": 8927,
      "inar": 8928,
      "Ġwrap": 8929,
      "itches": 8930,
      "esh": 8931,
      "anwhile": 8932,
      "Ġlibr": 8933,
      "eters": 8934,
      "oto": 8935,
      "olk": 8936,
      "ĠAcer": 8937,
      "ĠMethod": 8938,
      "ĠWatch": 8939,
      "Ġshade": 8940,
      "Ġchapter": 8941,
      "Ġabund": 8942,
      "Ġbuttons": 8943,
      "Ġloyal": 8944,
      "Ġinclus": 8945,
      "Ġroots": 8946,
      "Ġconserv": 8947,
      "Ġexperim": 8948,
      "issions": 8949,
      "Ġhighlights": 8950,
      "Ġboots": 8951,
      "ĠArm": 8952,
      "ĠFront": 8953,
      "Ġcenters": 8954,
      "Ġenjoyable": 8955,
      "Ġpopulations": 8956,
      "ĠProm": 8957,
      "Ġemployed": 8958,
      "Ġtemporary": 8959,
      "ĠTrade": 8960,
      "Ġstrongly": 8961,
      "graduate": 8962,
      "Ġ1991": 8963,
      "Ġfunded": 8964,
      "Ġcollections": 8965,
      "Ġengineers": 8966,
      "Ġrepresentation": 8967,
      "Ġmixing": 8968,
      "Ġheavily": 8969,
      "Ġsurvival": 8970,
      "Ġefficiently": 8971,
      "Next": 8972,
      "Ġrarely": 8973,
      "ĠSingapore": 8974,
      "ĠOfficer": 8975,
      "Ġepisode": 8976,
      "Ġstainless": 8977,
      "Like": 8978,
      "Rec": 8979,
      "Us": 8980,
      "iary": 8981,
      "power": 8982,
      "Ġtie": 8983,
      "rer": 8984,
      "Ġcakes": 8985,
      "Ġpitch": 8986,
      "urches": 8987,
      "ĠSenior": 8988,
      "ĠAff": 8989,
      "Ġweird": 8990,
      "Ġconventional": 8991,
      "Ġexists": 8992,
      "Ġsees": 8993,
      "oper": 8994,
      "umer": 8995,
      "osa": 8996,
      "ĠEN": 8997,
      "ĠES": 8998,
      "ĠEgypt": 8999,
      "ĠNFL": 9000,
      "Ġadmit": 9001,
      "agon": 9002,
      "Ġlob": 9003,
      "ĠYet": 9004,
      "Ġanymore": 9005,
      "Ġoverview": 9006,
      "ĠChoose": 9007,
      "ĠStation": 9008,
      "Ġscores": 9009,
      "ludes": 9010,
      "Ġproduces": 9011,
      "ocation": 9012,
      "riculum": 9013,
      "Ġbrilliant": 9014,
      "Ġartistic": 9015,
      "Ġending": 9016,
      "Ġsubtle": 9017,
      "Ġreturning": 9018,
      "aux": 9019,
      "Ġrefrig": 9020,
      "Ġprofessor": 9021,
      "Ġoldest": 9022,
      "ĠAlliance": 9023,
      "Ġlawyer": 9024,
      "Ġviewed": 9025,
      "Ġlegit": 9026,
      "Ġdiabetes": 9027,
      "Ġpoison": 9028,
      "Ġnetworking": 9029,
      "ĠìĿ": 9030,
      "ĠContract": 9031,
      "Ġperiods": 9032,
      "Ġautomation": 9033,
      "Ġsafely": 9034,
      "Ġelsewhere": 9035,
      "ĠEmail": 9036,
      "Ġindicated": 9037,
      "Ġoccasions": 9038,
      "Ġvacc": 9039,
      "ĠMuslim": 9040,
      "Ġfraud": 9041,
      "Ġscenario": 9042,
      "Ġinstruments": 9043,
      "Ġregulatory": 9044,
      "Ġenthusi": 9045,
      "Ġfoam": 9046,
      "Ġversatile": 9047,
      "EB": 9048,
      "Love": 9049,
      "Sec": 9050,
      "fin": 9051,
      "hour": 9052,
      "mates": 9053,
      "viously": 9054,
      "Ġsized": 9055,
      "Ġware": 9056,
      "Ġcaut": 9057,
      "Ġpicking": 9058,
      "lyn": 9059,
      "ĠMA": 9060,
      "ĠMap": 9061,
      "ĠPen": 9062,
      "Ġfranchise": 9063,
      "ĠHong": 9064,
      "Ġsear": 9065,
      "ĠFact": 9066,
      "through": 9067,
      "Ġvou": 9068,
      "Ġvice": 9069,
      "ĠEvent": 9070,
      "ĠNC": 9071,
      "iends": 9072,
      "Ġsof": 9073,
      "Ġwheels": 9074,
      "Ġenvironments": 9075,
      "ĠJud": 9076,
      "ĠJord": 9077,
      "ĠJason": 9078,
      "Ġque": 9079,
      "Ġdisadvant": 9080,
      "Ġnewest": 9081,
      "itioner": 9082,
      "Ġrecover": 9083,
      "ĠVer": 9084,
      "Ġattach": 9085,
      "icted": 9086,
      "everal": 9087,
      "Ġgeneric": 9088,
      "bered": 9089,
      "ĠAdam": 9090,
      "ĠAfghan": 9091,
      "Ġelected": 9092,
      "ospel": 9093,
      "Ġbeautifully": 9094,
      "Ġrepresentative": 9095,
      "Ġglobe": 9096,
      "ĠPolish": 9097,
      "Ġlicence": 9098,
      "Ġcrack": 9099,
      "ĠFinancial": 9100,
      "Ġgarlic": 9101,
      "ĠProgramme": 9102,
      "Ġpassionate": 9103,
      "Ġcontroller": 9104,
      "Ġliterature": 9105,
      "Ġduties": 9106,
      "ĠProduct": 9107,
      "Ġmistakes": 9108,
      "Ġestimates": 9109,
      "stein": 9110,
      "Ġphenomen": 9111,
      "Ġenforcement": 9112,
      "Ġsophisticated": 9113,
      "Read": 9114,
      "lers": 9115,
      "oen": 9116,
      "uan": 9117,
      "Ð½": 9118,
      "isp": 9119,
      "iser": 9120,
      "Ġbills": 9121,
      "Ġinfection": 9122,
      "icide": 9123,
      "stall": 9124,
      "ĠIR": 9125,
      "raine": 9126,
      "Ġaluminum": 9127,
      "iform": 9128,
      "ĠBan": 9129,
      "ĠBody": 9130,
      "ĠHig": 9131,
      "ĠFar": 9132,
      "antas": 9133,
      "Ġrib": 9134,
      "Ġranging": 9135,
      "ĠRay": 9136,
      "Ġshades": 9137,
      "ĠOcean": 9138,
      "iah": 9139,
      "assion": 9140,
      "Ġevolution": 9141,
      "Ġimpressed": 9142,
      "Ġworkforce": 9143,
      "Ġwanting": 9144,
      "Ġflaw": 9145,
      "Ġinspection": 9146,
      "Ġinstruction": 9147,
      "Ġprogramming": 9148,
      "ĠArmy": 9149,
      "Ġpubl": 9150,
      "Ġsurely": 9151,
      "Ġspecialists": 9152,
      "ERS": 9153,
      "Ġmovements": 9154,
      "ĠDrive": 9155,
      "backs": 9156,
      "Ġautomated": 9157,
      "Ġcriteria": 9158,
      "Ġtowns": 9159,
      "Ġfigures": 9160,
      "Ġgraduated": 9161,
      "Ġmatching": 9162,
      "Ġminimal": 9163,
      "Reg": 9164,
      "Ġsubstance": 9165,
      "Ġordinary": 9166,
      "Ġreveal": 9167,
      "Ġflavour": 9168,
      "Ġbreathing": 9169,
      "Ġê·": 9170,
      "ĠVisit": 9171,
      "ĠSilver": 9172,
      "ĠMagazine": 9173,
      "Ġproposal": 9174,
      "Ġemphasis": 9175,
      "Ġromantic": 9176,
      "Ġbarely": 9177,
      "Ġscratch": 9178,
      "Ġjewelry": 9179,
      "Ġexterior": 9180,
      "ĠHouston": 9181,
      "87": 9182,
      "Finally": 9183,
      "MR": 9184,
      "Make": 9185,
      "NY": 9186,
      "dem": 9187,
      "gor": 9188,
      "gments": 9189,
      "mical": 9190,
      "sor": 9191,
      "ðŁ": 9192,
      "Ġtone": 9193,
      "Ġtheatre": 9194,
      "eras": 9195,
      "Ġwed": 9196,
      "Ġought": 9197,
      "Ġdancing": 9198,
      "Ġlip": 9199,
      "ethe": 9200,
      "etch": 9201,
      "ĠCult": 9202,
      "ĠAvenue": 9203,
      "Ġwithd": 9204,
      "sey": 9205,
      "ĠPur": 9206,
      "ĠPop": 9207,
      "estion": 9208,
      "Ġseeds": 9209,
      "Ġwashing": 9210,
      "ĠRyan": 9211,
      "ĠLat": 9212,
      "ĠEst": 9213,
      "Ġjet": 9214,
      "Ġincent": 9215,
      "ultane": 9216,
      "ĠKenn": 9217,
      "Ġscal": 9218,
      "Ġlocally": 9219,
      "Ġinstantly": 9220,
      "Ġminister": 9221,
      "Ġmonetary": 9222,
      "ĠComb": 9223,
      "Ġhandy": 9224,
      "Ġhappiness": 9225,
      "Ġorganisation": 9226,
      "Ġdisturb": 9227,
      "Ġequally": 9228,
      "Ġhearts": 9229,
      "ĠMeet": 9230,
      "Ġsatellite": 9231,
      "Ġinspiring": 9232,
      "ĠPoland": 9233,
      "ìĿĦ": 9234,
      "ĠSmart": 9235,
      "Ġcertificate": 9236,
      "Ġbehavi": 9237,
      "Ġmechanical": 9238,
      "Ġinvestigate": 9239,
      "Ġshooting": 9240,
      "ĠAlexander": 9241,
      "Ġharvest": 9242,
      "Ġconsequences": 9243,
      "Ġvendors": 9244,
      "ĠAuthority": 9245,
      "People": 9246,
      "ĠPhilippines": 9247,
      "rapeut": 9248,
      "Ġmathemat": 9249,
      "',": 9250,
      "69": 9251,
      "89": 9252,
      "EX": 9253,
      "OB": 9254,
      "Sim": 9255,
      "bury": 9256,
      "cs": 9257,
      "high": 9258,
      "lu": 9259,
      "mill": 9260,
      "world": 9261,
      "Ġpounds": 9262,
      "Ġhun": 9263,
      "Ġhorses": 9264,
      "eties": 9265,
      "ĠTai": 9266,
      "uru": 9267,
      "oween": 9268,
      "olly": 9269,
      "ĠAth": 9270,
      "Ġstrap": 9271,
      "ador": 9272,
      "ĠMD": 9273,
      "ĠMaterial": 9274,
      "ifting": 9275,
      "ĠBush": 9276,
      "ĠWedding": 9277,
      "cker": 9278,
      "Ġexhaust": 9279,
      "Ġsegment": 9280,
      "anto": 9281,
      "aine": 9282,
      "ĠNations": 9283,
      "rub": 9284,
[...]
